{
  "version": "1.0",
  "truncation": null,
  "padding": null,
  "added_tokens": [
    {
      "id": 0,
      "content": "[STOP]",
      "single_word": false,
      "lstrip": false,
      "rstrip": false,
      "normalized": false,
      "special": true
    },
    {
      "id": 1,
      "content": "[UNK]",
      "single_word": false,
      "lstrip": false,
      "rstrip": false,
      "normalized": false,
      "special": true
    },
    {
      "id": 2,
      "content": "[SPACE]",
      "single_word": false,
      "lstrip": false,
      "rstrip": false,
      "normalized": false,
      "special": true
    },
    {
      "id": 259,
      "content": "[en]",
      "single_word": false,
      "lstrip": false,
      "rstrip": false,
      "normalized": false,
      "special": true
    },
    {
      "id": 260,
      "content": "[de]",
      "single_word": false,
      "lstrip": false,
      "rstrip": false,
      "normalized": false,
      "special": true
    },
    {
      "id": 261,
      "content": "[START]",
      "single_word": false,
      "lstrip": false,
      "rstrip": false,
      "normalized": false,
      "special": true
    },
    {
      "id": 262,
      "content": "[fr]",
      "single_word": false,
      "lstrip": false,
      "rstrip": false,
      "normalized": false,
      "special": true
    },
    {
      "id": 267,
      "content": "[ru]",
      "single_word": false,
      "lstrip": false,
      "rstrip": false,
      "normalized": false,
      "special": true
    },
    {
      "id": 284,
      "content": "[es]",
      "single_word": false,
      "lstrip": false,
      "rstrip": false,
      "normalized": false,
      "special": true
    },
    {
      "id": 285,
      "content": "[it]",
      "single_word": false,
      "lstrip": false,
      "rstrip": false,
      "normalized": false,
      "special": true
    },
    {
      "id": 286,
      "content": "[pt]",
      "single_word": false,
      "lstrip": false,
      "rstrip": false,
      "normalized": false,
      "special": true
    },
    {
      "id": 293,
      "content": "[cs]",
      "single_word": false,
      "lstrip": false,
      "rstrip": false,
      "normalized": false,
      "special": true
    },
    {
      "id": 294,
      "content": "[pl]",
      "single_word": false,
      "lstrip": false,
      "rstrip": false,
      "normalized": false,
      "special": true
    },
    {
      "id": 295,
      "content": "[tr]",
      "single_word": false,
      "lstrip": false,
      "rstrip": false,
      "normalized": false,
      "special": true
    },
    {
      "id": 297,
      "content": "[nl]",
      "single_word": false,
      "lstrip": false,
      "rstrip": false,
      "normalized": false,
      "special": true
    },
    {
      "id": 5022,
      "content": "[ar]",
      "single_word": false,
      "lstrip": false,
      "rstrip": false,
      "normalized": false,
      "special": true
    },
    {
      "id": 5023,
      "content": "[zh-cn]",
      "single_word": false,
      "lstrip": false,
      "rstrip": false,
      "normalized": false,
      "special": true
    },
    {
      "id": 5412,
      "content": "[ja]",
      "single_word": false,
      "lstrip": false,
      "rstrip": false,
      "normalized": false,
      "special": true
    },
    {
      "id": 5753,
      "content": "[hu]",
      "single_word": false,
      "lstrip": false,
      "rstrip": false,
      "normalized": false,
      "special": true
    },
    {
      "id": 6152,
      "content": "[ko]",
      "single_word": false,
      "lstrip": false,
      "rstrip": false,
      "normalized": false,
      "special": true
    },
    {
      "id": 6680,
      "content": "[hi]",
      "single_word": false,
      "lstrip": false,
      "rstrip": false,
      "normalized": false,
      "special": true
    },
    {
      "id": 6681,
      "content": "[vi]",
      "single_word": false,
      "lstrip": false,
      "rstrip": false,
      "normalized": false,
      "special": true
    }
  ],
  "normalizer": null,
  "pre_tokenizer": {
    "type": "Whitespace"
  },
  "post_processor": null,
  "decoder": null,
  "model": {
    "type": "BPE",
    "dropout": null,
    "unk_token": null,
    "continuing_subword_prefix": null,
    "end_of_word_suffix": null,
    "fuse_unk": false,
    "byte_fallback": false,
    "ignore_merges": false,
    "vocab": {
      "[STOP]": 0,
      "[UNK]": 1,
      "[SPACE]": 2,
      "!": 3,
      "'": 4,
      "(": 5,
      ")": 6,
      ",": 7,
      "-": 8,
      ".": 9,
      "/": 10,
      ":": 11,
      ";": 12,
      "?": 13,
      "a": 14,
      "b": 15,
      "c": 16,
      "d": 17,
      "e": 18,
      "f": 19,
      "g": 20,
      "h": 21,
      "i": 22,
      "j": 23,
      "k": 24,
      "l": 25,
      "m": 26,
      "n": 27,
      "o": 28,
      "p": 29,
      "q": 30,
      "r": 31,
      "s": 32,
      "t": 33,
      "u": 34,
      "v": 35,
      "w": 36,
      "x": 37,
      "y": 38,
      "z": 39,
      "th": 40,
      "in": 41,
      "the": 42,
      "an": 43,
      "er": 44,
      "ou": 45,
      "re": 46,
      "on": 47,
      "at": 48,
      "ed": 49,
      "en": 50,
      "to": 51,
      "ing": 52,
      "and": 53,
      "is": 54,
      "as": 55,
      "al": 56,
      "or": 57,
      "of": 58,
      "ar": 59,
      "it": 60,
      "es": 61,
      "he": 62,
      "st": 63,
      "le": 64,
      "om": 65,
      "se": 66,
      "be": 67,
      "ad": 68,
      "ow": 69,
      "ly": 70,
      "ch": 71,
      "wh": 72,
      "that": 73,
      "you": 74,
      "li": 75,
      "ve": 76,
      "ac": 77,
      "ti": 78,
      "ld": 79,
      "me": 80,
      "was": 81,
      "gh": 82,
      "id": 83,
      "ll": 84,
      "wi": 85,
      "ent": 86,
      "for": 87,
      "ay": 88,
      "ro": 89,
      "ver": 90,
      "ic": 91,
      "her": 92,
      "ke": 93,
      "his": 94,
      "no": 95,
      "ut": 96,
      "un": 97,
      "ir": 98,
      "lo": 99,
      "we": 100,
      "ri": 101,
      "ha": 102,
      "with": 103,
      "ght": 104,
      "out": 105,
      "im": 106,
      "ion": 107,
      "all": 108,
      "ab": 109,
      "one": 110,
      "ne": 111,
      "ge": 112,
      "ould": 113,
      "ter": 114,
      "mo": 115,
      "had": 116,
      "ce": 117,
      "she": 118,
      "go": 119,
      "sh": 120,
      "ur": 121,
      "am": 122,
      "so": 123,
      "pe": 124,
      "my": 125,
      "de": 126,
      "are": 127,
      "but": 128,
      "ome": 129,
      "fr": 130,
      "ther": 131,
      "fe": 132,
      "su": 133,
      "do": 134,
      "con": 135,
      "te": 136,
      "ain": 137,
      "ere": 138,
      "po": 139,
      "if": 140,
      "they": 141,
      "us": 142,
      "ag": 143,
      "tr": 144,
      "now": 145,
      "oun": 146,
      "this": 147,
      "have": 148,
      "not": 149,
      "sa": 150,
      "il": 151,
      "up": 152,
      "thing": 153,
      "from": 154,
      "ap": 155,
      "him": 156,
      "ack": 157,
      "ation": 158,
      "ant": 159,
      "our": 160,
      "op": 161,
      "like": 162,
      "ust": 163,
      "ess": 164,
      "bo": 165,
      "ok": 166,
      "ul": 167,
      "ind": 168,
      "ex": 169,
      "com": 170,
      "some": 171,
      "there": 172,
      "ers": 173,
      "co": 174,
      "res": 175,
      "man": 176,
      "ard": 177,
      "pl": 178,
      "wor": 179,
      "way": 180,
      "tion": 181,
      "fo": 182,
      "ca": 183,
      "were": 184,
      "by": 185,
      "ate": 186,
      "pro": 187,
      "ted": 188,
      "ound": 189,
      "own": 190,
      "would": 191,
      "ts": 192,
      "what": 193,
      "qu": 194,
      "ally": 195,
      "ight": 196,
      "ck": 197,
      "gr": 198,
      "when": 199,
      "ven": 200,
      "can": 201,
      "ough": 202,
      "ine": 203,
      "end": 204,
      "per": 205,
      "ous": 206,
      "od": 207,
      "ide": 208,
      "know": 209,
      "ty": 210,
      "very": 211,
      "si": 212,
      "ak": 213,
      "who": 214,
      "about": 215,
      "ill": 216,
      "them": 217,
      "est": 218,
      "red": 219,
      "ye": 220,
      "could": 221,
      "ong": 222,
      "your": 223,
      "their": 224,
      "em": 225,
      "just": 226,
      "other": 227,
      "into": 228,
      "any": 229,
      "whi": 230,
      "um": 231,
      "tw": 232,
      "ast": 233,
      "der": 234,
      "did": 235,
      "ie": 236,
      "been": 237,
      "ace": 238,
      "ink": 239,
      "ity": 240,
      "back": 241,
      "ting": 242,
      "br": 243,
      "more": 244,
      "ake": 245,
      "pp": 246,
      "then": 247,
      "sp": 248,
      "el": 249,
      "use": 250,
      "bl": 251,
      "said": 252,
      "over": 253,
      "get": 254,
      "ß": 255,
      "ä": 256,
      "ö": 257,
      "ü": 258,
      "[en]": 259,
      "[de]": 260,
      "[START]": 261,
      "[fr]": 262,
      "œ": 263,
      "ï": 264,
      "ê": 265,
      "â": 266,
      "[ru]": 267,
      "ÿ": 268,
      "è": 269,
      "à": 270,
      "ë": 271,
      "ù": 272,
      "î": 273,
      "ç": 274,
      "æ": 275,
      "ô": 276,
      "û": 277,
      "á": 278,
      "é": 279,
      "í": 280,
      "ó": 281,
      "ú": 282,
      "ñ": 283,
      "[es]": 284,
      "[it]": 285,
      "[pt]": 286,
      "ń": 287,
      "ś": 288,
      "ę": 289,
      "ą": 290,
      "ż": 291,
      "ć": 292,
      "[cs]": 293,
      "[pl]": 294,
      "[tr]": 295,
      "ã": 296,
      "[nl]": 297,
      "ş": 298,
      "ğ": 299,
      "ı": 300,
      "ò": 301,
      "ì": 302,
      "¿": 303,
      "…": 304,
      "i̇": 305,
      "õ": 306,
      "\"": 307,
      "´": 308,
      "ø": 309,
      "č": 310,
      "ō": 311,
      "š": 312,
      "ž": 313,
      "̇": 314,
      "ei": 315,
      "ich": 316,
      "ein": 317,
      "au": 318,
      "sch": 319,
      "und": 320,
      "die": 321,
      "da": 322,
      "den": 323,
      "gen": 324,
      "zu": 325,
      "hr": 326,
      "ten": 327,
      "mi": 328,
      "sie": 329,
      "das": 330,
      "eine": 331,
      "icht": 332,
      "ber": 333,
      "ach": 334,
      "auf": 335,
      "lich": 336,
      "nicht": 337,
      "mm": 338,
      "ben": 339,
      "war": 340,
      "mit": 341,
      "sich": 342,
      "ig": 343,
      "aus": 344,
      "ist": 345,
      "wie": 346,
      "och": 347,
      "ung": 348,
      "ann": 349,
      "ür": 350,
      "hn": 351,
      "ihr": 352,
      "sen": 353,
      "tz": 354,
      "dem": 355,
      "eit": 356,
      "hat": 357,
      "wir": 358,
      "von": 359,
      "wei": 360,
      "ier": 361,
      "ra": 362,
      "einen": 363,
      "vor": 364,
      "als": 365,
      "wo": 366,
      "rei": 367,
      "ste": 368,
      "lie": 369,
      "auch": 370,
      "du": 371,
      "des": 372,
      "ko": 373,
      "über": 374,
      "bei": 375,
      "hen": 376,
      "hm": 377,
      "lei": 378,
      "aber": 379,
      "wen": 380,
      "hl": 381,
      "ger": 382,
      "nach": 383,
      "ft": 384,
      "imm": 385,
      "je": 386,
      "schen": 387,
      "wer": 388,
      "ser": 389,
      "än": 390,
      "sein": 391,
      "ol": 392,
      "cht": 393,
      "für": 394,
      "kl": 395,
      "ff": 396,
      "einem": 397,
      "nen": 398,
      "ja": 399,
      "noch": 400,
      "hatte": 401,
      "pf": 402,
      "hin": 403,
      "di": 404,
      "chen": 405,
      "rü": 406,
      "iel": 407,
      "sel": 408,
      "dass": 409,
      "ihn": 410,
      "mir": 411,
      "schl": 412,
      "ön": 413,
      "gan": 414,
      "gt": 415,
      "einer": 416,
      "sten": 417,
      "mich": 418,
      "wenn": 419,
      "ell": 420,
      "gte": 421,
      "mal": 422,
      "gel": 423,
      "ken": 424,
      "nur": 425,
      "mmen": 426,
      "fü": 427,
      "ern": 428,
      "ör": 429,
      "unter": 430,
      "ander": 431,
      "dur": 432,
      "uch": 433,
      "ta": 434,
      "men": 435,
      "mach": 436,
      "doch": 437,
      "durch": 438,
      "os": 439,
      "gl": 440,
      "hal": 441,
      "ihre": 442,
      "wä": 443,
      "immer": 444,
      "ihm": 445,
      "kann": 446,
      "ort": 447,
      "dann": 448,
      "lan": 449,
      "tzt": 450,
      "oder": 451,
      "hren": 452,
      "et": 453,
      "kön": 454,
      "ick": 455,
      "fa": 456,
      "wieder": 457,
      "daß": 458,
      "mein": 459,
      "fen": 460,
      "ganz": 461,
      "diese": 462,
      "ster": 463,
      "dar": 464,
      "wa": 465,
      "ges": 466,
      "na": 467,
      "fl": 468,
      "igen": 469,
      "sche": 470,
      "ungen": 471,
      "mehr": 472,
      "ßen": 473,
      "ot": 474,
      "kon": 475,
      "gew": 476,
      "haben": 477,
      "geh": 478,
      "ät": 479,
      "sind": 480,
      "dr": 481,
      "wel": 482,
      "uns": 483,
      "vo": 484,
      "ma": 485,
      "ute": 486,
      "schon": 487,
      "bes": 488,
      "gesch": 489,
      "bt": 490,
      "che": 491,
      "son": 492,
      "ob": 493,
      "la": 494,
      "rück": 495,
      "seine": 496,
      "kr": 497,
      "fre": 498,
      "eil": 499,
      "zum": 500,
      "hier": 501,
      "kt": 502,
      "ige": 503,
      "spr": 504,
      "leben": 505,
      "bst": 506,
      "zeit": 507,
      "gro": 508,
      "denn": 509,
      "ho": 510,
      "scha": 511,
      "bar": 512,
      "alle": 513,
      "gegen": 514,
      "wür": 515,
      "mü": 516,
      "ze": 517,
      "werden": 518,
      "jetzt": 519,
      "kommen": 520,
      "nie": 521,
      "sei": 522,
      "heit": 523,
      "soll": 524,
      "glei": 525,
      "meine": 526,
      "woll": 527,
      "ner": 528,
      "habe": 529,
      "wur": 530,
      "lichen": 531,
      "assen": 532,
      "nte": 533,
      "sehen": 534,
      "wird": 535,
      "bis": 536,
      "gar": 537,
      "ien": 538,
      "mus": 539,
      "uß": 540,
      "är": 541,
      "stell": 542,
      "keit": 543,
      "zwei": 544,
      "selbst": 545,
      "sta": 546,
      "pa": 547,
      "sagte": 548,
      "tet": 549,
      "kam": 550,
      "ssen": 551,
      "viel": 552,
      "ug": 553,
      "zen": 554,
      "hei": 555,
      "mann": 556,
      "will": 557,
      "geb": 558,
      "waren": 559,
      "ück": 560,
      "äch": 561,
      "mer": 562,
      "ru": 563,
      "hau": 564,
      "eigen": 565,
      "ang": 566,
      "weg": 567,
      "blick": 568,
      "fra": 569,
      "alles": 570,
      "ka": 571,
      "augen": 572,
      "fin": 573,
      "liche": 574,
      "unser": 575,
      "dern": 576,
      "herr": 577,
      "nun": 578,
      "vie": 579,
      "chte": 580,
      "wohl": 581,
      "fall": 582,
      "ht": 583,
      "ün": 584,
      "etwas": 585,
      "stand": 586,
      "äu": 587,
      "mö": 588,
      "tel": 589,
      "rie": 590,
      "dich": 591,
      "dies": 592,
      "hand": 593,
      "bin": 594,
      "ffen": 595,
      "nichts": 596,
      "dan": 597,
      "hne": 598,
      "ihnen": 599,
      "esen": 600,
      "dieser": 601,
      "frau": 602,
      "art": 603,
      "dir": 604,
      "isch": 605,
      "erst": 606,
      "gleich": 607,
      "komm": 608,
      "hör": 609,
      "ße": 610,
      "dig": 611,
      "sehr": 612,
      "zei": 613,
      "sam": 614,
      "aum": 615,
      "hät": 616,
      "ingen": 617,
      "gut": 618,
      "mut": 619,
      "cken": 620,
      "konnte": 621,
      "stimm": 622,
      "zur": 623,
      "itz": 624,
      "weil": 625,
      "würde": 626,
      "fä": 627,
      "können": 628,
      "keine": 629,
      "fer": 630,
      "ischen": 631,
      "voll": 632,
      "eines": 633,
      "setz": 634,
      "zie": 635,
      "del": 636,
      "tete": 637,
      "seiner": 638,
      "ieren": 639,
      "gest": 640,
      "zurück": 641,
      "wurde": 642,
      "schn": 643,
      "pr": 644,
      "ließ": 645,
      "tra": 646,
      "mä": 647,
      "gend": 648,
      "fol": 649,
      "ik": 650,
      "schla": 651,
      "schaft": 652,
      "ater": 653,
      "weiß": 654,
      "seinen": 655,
      "lassen": 656,
      "lu": 657,
      "unden": 658,
      "teil": 659,
      "neu": 660,
      "iert": 661,
      "menschen": 662,
      "hmen": 663,
      "str": 664,
      "gi": 665,
      "sah": 666,
      "ihren": 667,
      "eln": 668,
      "weiter": 669,
      "gehen": 670,
      "iger": 671,
      "macht": 672,
      "tag": 673,
      "also": 674,
      "halten": 675,
      "nis": 676,
      "acht": 677,
      "geben": 678,
      "og": 679,
      "nat": 680,
      "mar": 681,
      "det": 682,
      "ohne": 683,
      "haus": 684,
      "tro": 685,
      "ange": 686,
      "lau": 687,
      "spiel": 688,
      "tre": 689,
      "schr": 690,
      "inn": 691,
      "los": 692,
      "machen": 693,
      "hätte": 694,
      "beg": 695,
      "wirk": 696,
      "alt": 697,
      "glich": 698,
      "tes": 699,
      "richt": 700,
      "freund": 701,
      "ihrer": 702,
      "fel": 703,
      "bel": 704,
      "sol": 705,
      "einmal": 706,
      "eben": 707,
      "hol": 708,
      "hän": 709,
      "tern": 710,
      "hö": 711,
      "schw": 712,
      "recht": 713,
      "wahr": 714,
      "seinem": 715,
      "stehen": 716,
      "hlen": 717,
      "ins": 718,
      "ging": 719,
      "wollte": 720,
      "wissen": 721,
      "ungs": 722,
      "ald": 723,
      "ass": 724,
      "jahr": 725,
      "mor": 726,
      "welt": 727,
      "under": 728,
      "zusa": 729,
      "kopf": 730,
      "lang": 731,
      "hinter": 732,
      "atz": 733,
      "stra": 734,
      "angen": 735,
      "ank": 736,
      "ade": 737,
      "glau": 738,
      "fach": 739,
      "hatten": 740,
      "fort": 741,
      "eicht": 742,
      "iff": 743,
      "ler": 744,
      "mei": 745,
      "diesem": 746,
      "kein": 747,
      "frei": 748,
      "führ": 749,
      "vom": 750,
      "β": 751,
      "ai": 752,
      "ait": 753,
      "que": 754,
      "les": 755,
      "av": 756,
      "ais": 757,
      "oi": 758,
      "eu": 759,
      "lle": 760,
      "par": 761,
      "ans": 762,
      "ment": 763,
      "ét": 764,
      "une": 765,
      "pas": 766,
      "qui": 767,
      "elle": 768,
      "dé": 769,
      "pour": 770,
      "dans": 771,
      "ré": 772,
      "tou": 773,
      "vous": 774,
      "vi": 775,
      "ouv": 776,
      "mon": 777,
      "sur": 778,
      "ci": 779,
      "plu": 780,
      "ère": 781,
      "mais": 782,
      "ois": 783,
      "plus": 784,
      "ée": 785,
      "aient": 786,
      "mp": 787,
      "lui": 788,
      "ave": 789,
      "était": 790,
      "ses": 791,
      "tout": 792,
      "oir": 793,
      "avait": 794,
      "és": 795,
      "mes": 796,
      "nous": 797,
      "eux": 798,
      "bi": 799,
      "ons": 800,
      "pu": 801,
      "ces": 802,
      "tu": 803,
      "leur": 804,
      "don": 805,
      "eur": 806,
      "ette": 807,
      "aire": 808,
      "avec": 809,
      "dit": 810,
      "té": 811,
      "ille": 812,
      "comme": 813,
      "cr": 814,
      "ux": 815,
      "ès": 816,
      "aux": 817,
      "jour": 818,
      "ils": 819,
      "bien": 820,
      "cou": 821,
      "quel": 822,
      "peu": 823,
      "cette": 824,
      "cu": 825,
      "mê": 826,
      "fait": 827,
      "gu": 828,
      "être": 829,
      "ité": 830,
      "ens": 831,
      "ni": 832,
      "lé": 833,
      "dis": 834,
      "ble": 835,
      "né": 836,
      "puis": 837,
      "même": 838,
      "ques": 839,
      "fi": 840,
      "age": 841,
      "moi": 842,
      "ence": 843,
      "ont": 844,
      "main": 845,
      "ors": 846,
      "aut": 847,
      "ance": 848,
      "mé": 849,
      "sans": 850,
      "sé": 851,
      "lon": 852,
      "hom": 853,
      "car": 854,
      "able": 855,
      "cher": 856,
      "deux": 857,
      "enf": 858,
      "où": 859,
      "ph": 860,
      "ure": 861,
      "temp": 862,
      "pos": 863,
      "rent": 864,
      "pé": 865,
      "faire": 866,
      "pi": 867,
      "tres": 868,
      "ça": 869,
      "endre": 870,
      "bon": 871,
      "sou": 872,
      "int": 873,
      "pré": 874,
      "sent": 875,
      "tant": 876,
      "cer": 877,
      "là": 878,
      "lais": 879,
      "près": 880,
      "bre": 881,
      "cour": 882,
      "pet": 883,
      "comp": 884,
      "lait": 885,
      "trouv": 886,
      "entre": 887,
      "sont": 888,
      "dev": 889,
      "nu": 890,
      "temps": 891,
      "dou": 892,
      "rait": 893,
      "bou": 894,
      "quand": 895,
      "jours": 896,
      "avoir": 897,
      "été": 898,
      "ale": 899,
      "pre": 900,
      "fois": 901,
      "orte": 902,
      "vé": 903,
      "non": 904,
      "tous": 905,
      "jus": 906,
      "coup": 907,
      "homme": 908,
      "ête": 909,
      "aussi": 910,
      "urs": 911,
      "seu": 912,
      "ord": 913,
      "min": 914,
      "gé": 915,
      "core": 916,
      "va": 917,
      "vre": 918,
      "encore": 919,
      "sem": 920,
      "ite": 921,
      "autre": 922,
      "pris": 923,
      "peut": 924,
      "ue": 925,
      "ante": 926,
      "gn": 927,
      "rép": 928,
      "hu": 929,
      "sion": 930,
      "votre": 931,
      "dire": 932,
      "ez": 933,
      "fem": 934,
      "leurs": 935,
      "met": 936,
      "cri": 937,
      "mis": 938,
      "tour": 939,
      "rai": 940,
      "jam": 941,
      "regar": 942,
      "rien": 943,
      "vers": 944,
      "suis": 945,
      "pouv": 946,
      "vis": 947,
      "grand": 948,
      "ants": 949,
      "cor": 950,
      "rer": 951,
      "cé": 952,
      "tent": 953,
      "pres": 954,
      "vou": 955,
      "alors": 956,
      "sieur": 957,
      "aine": 958,
      "quoi": 959,
      "fon": 960,
      "endant": 961,
      "arri": 962,
      "eure": 963,
      "après": 964,
      "donc": 965,
      "itu": 966,
      "lè": 967,
      "sait": 968,
      "toi": 969,
      "cha": 970,
      "ail": 971,
      "asse": 972,
      "imp": 973,
      "voy": 974,
      "conn": 975,
      "pla": 976,
      "petit": 977,
      "avant": 978,
      "nom": 979,
      "tin": 980,
      "dont": 981,
      "sous": 982,
      "emp": 983,
      "person": 984,
      "elles": 985,
      "beau": 986,
      "parti": 987,
      "cho": 988,
      "prit": 989,
      "toujours": 990,
      "rais": 991,
      "jamais": 992,
      "trav": 993,
      "tions": 994,
      "très": 995,
      "voi": 996,
      "ren": 997,
      "yeux": 998,
      "voir": 999,
      "premi": 1000,
      "gne": 1001,
      "heure": 1002,
      "rou": 1003,
      "eff": 1004,
      "notre": 1005,
      "ments": 1006,
      "ton": 1007,
      "fais": 1008,
      "cela": 1009,
      "répon": 1010,
      "cons": 1011,
      "air": 1012,
      "ôt": 1013,
      "pendant": 1014,
      "ici": 1015,
      "toute": 1016,
      "jet": 1017,
      "port": 1018,
      "étaient": 1019,
      "pen": 1020,
      "hé": 1021,
      "autres": 1022,
      "père": 1023,
      "oc": 1024,
      "quelques": 1025,
      "ique": 1026,
      "lis": 1027,
      "femme": 1028,
      "jou": 1029,
      "teur": 1030,
      "monde": 1031,
      "nes": 1032,
      "dre": 1033,
      "aff": 1034,
      "rap": 1035,
      "part": 1036,
      "lement": 1037,
      "cla": 1038,
      "fut": 1039,
      "quelque": 1040,
      "prendre": 1041,
      "rê": 1042,
      "aille": 1043,
      "sais": 1044,
      "ches": 1045,
      "let": 1046,
      "char": 1047,
      "ères": 1048,
      "ents": 1049,
      "moins": 1050,
      "eau": 1051,
      "aî": 1052,
      "jeu": 1053,
      "heur": 1054,
      "ées": 1055,
      "tri": 1056,
      "point": 1057,
      "mom": 1058,
      "vent": 1059,
      "nouv": 1060,
      "gran": 1061,
      "trois": 1062,
      "sant": 1063,
      "toutes": 1064,
      "contre": 1065,
      "èrent": 1066,
      "chez": 1067,
      "avez": 1068,
      "ût": 1069,
      "att": 1070,
      "pau": 1071,
      "porte": 1072,
      "ouver": 1073,
      "lit": 1074,
      "prés": 1075,
      "chose": 1076,
      "vit": 1077,
      "monsieur": 1078,
      "hab": 1079,
      "tête": 1080,
      "ju": 1081,
      "tement": 1082,
      "ction": 1083,
      "vrai": 1084,
      "lar": 1085,
      "cet": 1086,
      "regard": 1087,
      "lant": 1088,
      "som": 1089,
      "moment": 1090,
      "illes": 1091,
      "ple": 1092,
      "ps": 1093,
      "mère": 1094,
      "cl": 1095,
      "sour": 1096,
      "ys": 1097,
      "trop": 1098,
      "enne": 1099,
      "jusqu": 1100,
      "avaient": 1101,
      "avais": 1102,
      "jeune": 1103,
      "depuis": 1104,
      "personne": 1105,
      "fit": 1106,
      "cert": 1107,
      "jo": 1108,
      "oui": 1109,
      "rest": 1110,
      "semb": 1111,
      "cap": 1112,
      "mat": 1113,
      "mu": 1114,
      "long": 1115,
      "fran": 1116,
      "faut": 1117,
      "iti": 1118,
      "bli": 1119,
      "chev": 1120,
      "pri": 1121,
      "ente": 1122,
      "ainsi": 1123,
      "cham": 1124,
      "lors": 1125,
      "cas": 1126,
      "ili": 1127,
      "bé": 1128,
      "nos": 1129,
      "sui": 1130,
      "rit": 1131,
      "cro": 1132,
      "gue": 1133,
      "ía": 1134,
      "por": 1135,
      "las": 1136,
      "ón": 1137,
      "una": 1138,
      "aba": 1139,
      "dos": 1140,
      "era": 1141,
      "mb": 1142,
      "para": 1143,
      "ás": 1144,
      "mos": 1145,
      "ando": 1146,
      "como": 1147,
      "más": 1148,
      "ción": 1149,
      "tan": 1150,
      "dad": 1151,
      "ado": 1152,
      "fu": 1153,
      "cia": 1154,
      "mente": 1155,
      "sus": 1156,
      "tar": 1157,
      "za": 1158,
      "ba": 1159,
      "pero": 1160,
      "sin": 1161,
      "lla": 1162,
      "án": 1163,
      "ia": 1164,
      "ran": 1165,
      "ga": 1166,
      "yo": 1167,
      "tos": 1168,
      "cos": 1169,
      "ya": 1170,
      "ones": 1171,
      "había": 1172,
      "hi": 1173,
      "esta": 1174,
      "mas": 1175,
      "tor": 1176,
      "aban": 1177,
      "dor": 1178,
      "ían": 1179,
      "tas": 1180,
      "én": 1181,
      "endo": 1182,
      "aque": 1183,
      "ero": 1184,
      "io": 1185,
      "qué": 1186,
      "cab": 1187,
      "tal": 1188,
      "señ": 1189,
      "ora": 1190,
      "todo": 1191,
      "sal": 1192,
      "cuando": 1193,
      "gun": 1194,
      "bu": 1195,
      "ras": 1196,
      "esto": 1197,
      "pare": 1198,
      "él": 1199,
      "tras": 1200,
      "jos": 1201,
      "mien": 1202,
      "pue": 1203,
      "cre": 1204,
      "pon": 1205,
      "día": 1206,
      "tros": 1207,
      "sab": 1208,
      "sobre": 1209,
      "ese": 1210,
      "mbre": 1211,
      "eron": 1212,
      "añ": 1213,
      "ido": 1214,
      "porque": 1215,
      "ella": 1216,
      "cen": 1217,
      "muy": 1218,
      "cal": 1219,
      "este": 1220,
      "has": 1221,
      "có": 1222,
      "gra": 1223,
      "ros": 1224,
      "aquel": 1225,
      "dijo": 1226,
      "cía": 1227,
      "zo": 1228,
      "ciones": 1229,
      "mbi": 1230,
      "elo": 1231,
      "tó": 1232,
      "ina": 1233,
      "todos": 1234,
      "tien": 1235,
      "estaba": 1236,
      "deci": 1237,
      "cio": 1238,
      "ño": 1239,
      "lor": 1240,
      "nues": 1241,
      "medi": 1242,
      "len": 1243,
      "vida": 1244,
      "ali": 1245,
      "pues": 1246,
      "ales": 1247,
      "vol": 1248,
      "mí": 1249,
      "rar": 1250,
      "cion": 1251,
      "hasta": 1252,
      "señor": 1253,
      "cono": 1254,
      "ah": 1255,
      "dios": 1256,
      "esa": 1257,
      "ún": 1258,
      "var": 1259,
      "san": 1260,
      "gui": 1261,
      "otros": 1262,
      "tado": 1263,
      "buen": 1264,
      "ña": 1265,
      "tiemp": 1266,
      "hacer": 1267,
      "jer": 1268,
      "vu": 1269,
      "ana": 1270,
      "así": 1271,
      "antes": 1272,
      "vez": 1273,
      "miento": 1274,
      "jar": 1275,
      "lab": 1276,
      "casa": 1277,
      "eso": 1278,
      "ego": 1279,
      "dió": 1280,
      "está": 1281,
      "encia": 1282,
      "eli": 1283,
      "ías": 1284,
      "tiempo": 1285,
      "zar": 1286,
      "van": 1287,
      "mun": 1288,
      "erta": 1289,
      "tambi": 1290,
      "sí": 1291,
      "aun": 1292,
      "mismo": 1293,
      "entes": 1294,
      "mano": 1295,
      "ele": 1296,
      "nada": 1297,
      "segu": 1298,
      "mej": 1299,
      "erra": 1300,
      "tir": 1301,
      "uno": 1302,
      "donde": 1303,
      "toda": 1304,
      "desde": 1305,
      "también": 1306,
      "cuer": 1307,
      "hombre": 1308,
      "otro": 1309,
      "lib": 1310,
      "trar": 1311,
      "cual": 1312,
      "hay": 1313,
      "cada": 1314,
      "taba": 1315,
      "mento": 1316,
      "tenía": 1317,
      "quer": 1318,
      "eran": 1319,
      "siemp": 1320,
      "siempre": 1321,
      "erto": 1322,
      "quí": 1323,
      "gos": 1324,
      "pués": 1325,
      "ellos": 1326,
      "después": 1327,
      "nue": 1328,
      "llo": 1329,
      "inter": 1330,
      "cómo": 1331,
      "ahora": 1332,
      "uste": 1333,
      "traba": 1334,
      "lado": 1335,
      "ino": 1336,
      "poco": 1337,
      "erte": 1338,
      "mujer": 1339,
      "quier": 1340,
      "algun": 1341,
      "fue": 1342,
      "ojos": 1343,
      "enton": 1344,
      "vos": 1345,
      "esper": 1346,
      "much": 1347,
      "otra": 1348,
      "az": 1349,
      "eza": 1350,
      "aquí": 1351,
      "cias": 1352,
      "gua": 1353,
      "mucho": 1354,
      "decir": 1355,
      "esti": 1356,
      "idad": 1357,
      "algo": 1358,
      "ocu": 1359,
      "entonces": 1360,
      "dido": 1361,
      "entos": 1362,
      "gri": 1363,
      "dado": 1364,
      "ios": 1365,
      "dose": 1366,
      "usted": 1367,
      "quien": 1368,
      "ami": 1369,
      "unto": 1370,
      "mejor": 1371,
      "bas": 1372,
      "solo": 1373,
      "pregun": 1374,
      "tur": 1375,
      "alg": 1376,
      "todas": 1377,
      "parte": 1378,
      "emb": 1379,
      "cto": 1380,
      "mundo": 1381,
      "tiene": 1382,
      "tante": 1383,
      "palab": 1384,
      "tran": 1385,
      "aquella": 1386,
      "cios": 1387,
      "aunque": 1388,
      "cuen": 1389,
      "tener": 1390,
      "fun": 1391,
      "respon": 1392,
      "allí": 1393,
      "xi": 1394,
      "han": 1395,
      "pens": 1396,
      "contra": 1397,
      "tura": 1398,
      "val": 1399,
      "dio": 1400,
      "tanto": 1401,
      "camin": 1402,
      "mó": 1403,
      "esp": 1404,
      "ada": 1405,
      "ío": 1406,
      "hacia": 1407,
      "dej": 1408,
      "estar": 1409,
      "ión": 1410,
      "gas": 1411,
      "vas": 1412,
      "noche": 1413,
      "ér": 1414,
      "años": 1415,
      "padre": 1416,
      "gus": 1417,
      "ár": 1418,
      "sino": 1419,
      "manos": 1420,
      "cido": 1421,
      "estu": 1422,
      "hubi": 1423,
      "vir": 1424,
      "bri": 1425,
      "raz": 1426,
      "chi": 1427,
      "puede": 1428,
      "menos": 1429,
      "habi": 1430,
      "homb": 1431,
      "neces": 1432,
      "may": 1433,
      "eros": 1434,
      "ría": 1435,
      "hecho": 1436,
      "escu": 1437,
      "lti": 1438,
      "ándo": 1439,
      "bus": 1440,
      "cosas": 1441,
      "tú": 1442,
      "espa": 1443,
      "reci": 1444,
      "ctor": 1445,
      "prim": 1446,
      "dia": 1447,
      "dese": 1448,
      "mientras": 1449,
      "hor": 1450,
      "fuer": 1451,
      "ida": 1452,
      "posi": 1453,
      "lante": 1454,
      "ano": 1455,
      "estas": 1456,
      "pli": 1457,
      "luego": 1458,
      "sión": 1459,
      "cin": 1460,
      "tierra": 1461,
      "guar": 1462,
      "cado": 1463,
      "encon": 1464,
      "pren": 1465,
      "mayor": 1466,
      "fal": 1467,
      "ð": 1468,
      "ħ": 1469,
      "ň": 1470,
      "ə": 1471,
      "θ": 1472,
      "’": 1473,
      "“": 1474,
      "”": 1475,
      "zi": 1476,
      "gli": 1477,
      "tto": 1478,
      "ono": 1479,
      "nel": 1480,
      "tti": 1481,
      "della": 1482,
      "zione": 1483,
      "tta": 1484,
      "tà": 1485,
      "uo": 1486,
      "come": 1487,
      "alla": 1488,
      "oni": 1489,
      "ggi": 1490,
      "ssi": 1491,
      "più": 1492,
      "ini": 1493,
      "bb": 1494,
      "sto": 1495,
      "sono": 1496,
      "eri": 1497,
      "sse": 1498,
      "sc": 1499,
      "sul": 1500,
      "vano": 1501,
      "sti": 1502,
      "suo": 1503,
      "cchi": 1504,
      "zza": 1505,
      "anche": 1506,
      "tte": 1507,
      "sci": 1508,
      "col": 1509,
      "sso": 1510,
      "ssa": 1511,
      "dei": 1512,
      "aveva": 1513,
      "zz": 1514,
      "amo": 1515,
      "gno": 1516,
      "sua": 1517,
      "ria": 1518,
      "sì": 1519,
      "ché": 1520,
      "dal": 1521,
      "ona": 1522,
      "spe": 1523,
      "gni": 1524,
      "tt": 1525,
      "delle": 1526,
      "questo": 1527,
      "nella": 1528,
      "dere": 1529,
      "anno": 1530,
      "dell": 1531,
      "uni": 1532,
      "bbe": 1533,
      "anti": 1534,
      "ene": 1535,
      "gio": 1536,
      "uto": 1537,
      "qual": 1538,
      "glia": 1539,
      "quando": 1540,
      "tutto": 1541,
      "glio": 1542,
      "zioni": 1543,
      "cam": 1544,
      "esso": 1545,
      "ss": 1546,
      "mol": 1547,
      "loro": 1548,
      "perché": 1549,
      "cosa": 1550,
      "due": 1551,
      "poi": 1552,
      "sco": 1553,
      "cco": 1554,
      "gna": 1555,
      "tem": 1556,
      "prima": 1557,
      "così": 1558,
      "essere": 1559,
      "ani": 1560,
      "bra": 1561,
      "rio": 1562,
      "anco": 1563,
      "cui": 1564,
      "spi": 1565,
      "via": 1566,
      "gior": 1567,
      "bile": 1568,
      "ggio": 1569,
      "mai": 1570,
      "tare": 1571,
      "indi": 1572,
      "rebbe": 1573,
      "senza": 1574,
      "zio": 1575,
      "tutti": 1576,
      "stato": 1577,
      "zia": 1578,
      "dalla": 1579,
      "mia": 1580,
      "vita": 1581,
      "quella": 1582,
      "qua": 1583,
      "dove": 1584,
      "allo": 1585,
      "sempre": 1586,
      "zzo": 1587,
      "sia": 1588,
      "dopo": 1589,
      "porta": 1590,
      "ccia": 1591,
      "erano": 1592,
      "anni": 1593,
      "chia": 1594,
      "enza": 1595,
      "propri": 1596,
      "anda": 1597,
      "cca": 1598,
      "occhi": 1599,
      "questa": 1600,
      "ffi": 1601,
      "ron": 1602,
      "mio": 1603,
      "ris": 1604,
      "ogni": 1605,
      "rin": 1606,
      "far": 1607,
      "menti": 1608,
      "ancora": 1609,
      "fatto": 1610,
      "mani": 1611,
      "senti": 1612,
      "pra": 1613,
      "tempo": 1614,
      "essi": 1615,
      "bbi": 1616,
      "lare": 1617,
      "pers": 1618,
      "sor": 1619,
      "anza": 1620,
      "pie": 1621,
      "verso": 1622,
      "altro": 1623,
      "tato": 1624,
      "cato": 1625,
      "ato": 1626,
      "volta": 1627,
      "cc": 1628,
      "fare": 1629,
      "ciò": 1630,
      "bili": 1631,
      "nuo": 1632,
      "quello": 1633,
      "colo": 1634,
      "ppo": 1635,
      "trova": 1636,
      "ore": 1637,
      "rono": 1638,
      "molto": 1639,
      "almente": 1640,
      "sca": 1641,
      "vole": 1642,
      "tali": 1643,
      "sulla": 1644,
      "sce": 1645,
      "meno": 1646,
      "anto": 1647,
      "pun": 1648,
      "stu": 1649,
      "capi": 1650,
      "giu": 1651,
      "mini": 1652,
      "pia": 1653,
      "lavo": 1654,
      "vero": 1655,
      "rsi": 1656,
      "altri": 1657,
      "scia": 1658,
      "suoi": 1659,
      "glie": 1660,
      "sotto": 1661,
      "bene": 1662,
      "scri": 1663,
      "tale": 1664,
      "degli": 1665,
      "alc": 1666,
      "uomo": 1667,
      "pel": 1668,
      "pote": 1669,
      "essa": 1670,
      "scu": 1671,
      "signo": 1672,
      "stro": 1673,
      "uti": 1674,
      "sione": 1675,
      "gre": 1676,
      "fini": 1677,
      "lun": 1678,
      "esi": 1679,
      "passa": 1680,
      "rà": 1681,
      "mentre": 1682,
      "hanno": 1683,
      "usci": 1684,
      "gia": 1685,
      "già": 1686,
      "mina": 1687,
      "tica": 1688,
      "giorno": 1689,
      "esse": 1690,
      "modo": 1691,
      "spa": 1692,
      "proprio": 1693,
      "ori": 1694,
      "contro": 1695,
      "stru": 1696,
      "diven": 1697,
      "disse": 1698,
      "rato": 1699,
      "noi": 1700,
      "vere": 1701,
      "può": 1702,
      "dice": 1703,
      "cci": 1704,
      "secon": 1705,
      "ccio": 1706,
      "qualche": 1707,
      "tutta": 1708,
      "gg": 1709,
      "mondo": 1710,
      "forma": 1711,
      "mma": 1712,
      "pensa": 1713,
      "deva": 1714,
      "fosse": 1715,
      "sopra": 1716,
      "tamente": 1717,
      "ness": 1718,
      "quanto": 1719,
      "raga": 1720,
      "unque": 1721,
      "care": 1722,
      "stre": 1723,
      "grande": 1724,
      "picco": 1725,
      "guarda": 1726,
      "nell": 1727,
      "possi": 1728,
      "presen": 1729,
      "rò": 1730,
      "paro": 1731,
      "tua": 1732,
      "vin": 1733,
      "ane": 1734,
      "stesso": 1735,
      "dav": 1736,
      "nei": 1737,
      "nelle": 1738,
      "ghi": 1739,
      "pio": 1740,
      "lato": 1741,
      "sid": 1742,
      "fine": 1743,
      "fuo": 1744,
      "quasi": 1745,
      "ulti": 1746,
      "ito": 1747,
      "sue": 1748,
      "fil": 1749,
      "allora": 1750,
      "veni": 1751,
      "tano": 1752,
      "ello": 1753,
      "ão": 1754,
      "não": 1755,
      "uma": 1756,
      "ela": 1757,
      "lh": 1758,
      "ção": 1759,
      "cê": 1760,
      "inha": 1761,
      "você": 1762,
      "ec": 1763,
      "dade": 1764,
      "ao": 1765,
      "ram": 1766,
      "vel": 1767,
      "ém": 1768,
      "pode": 1769,
      "estava": 1770,
      "isso": 1771,
      "mui": 1772,
      "faz": 1773,
      "ões": 1774,
      "pes": 1775,
      "ix": 1776,
      "sim": 1777,
      "olh": 1778,
      "isa": 1779,
      "ên": 1780,
      "tinha": 1781,
      "meu": 1782,
      "são": 1783,
      "minha": 1784,
      "muito": 1785,
      "foi": 1786,
      "bem": 1787,
      "diz": 1788,
      "parec": 1789,
      "ço": 1790,
      "pesso": 1791,
      "pois": 1792,
      "mesmo": 1793,
      "ções": 1794,
      "seus": 1795,
      "até": 1796,
      "ência": 1797,
      "lhe": 1798,
      "tiv": 1799,
      "mã": 1800,
      "só": 1801,
      "tão": 1802,
      "tudo": 1803,
      "então": 1804,
      "inda": 1805,
      "bal": 1806,
      "indo": 1807,
      "ndo": 1808,
      "já": 1809,
      "vam": 1810,
      "eito": 1811,
      "depois": 1812,
      "mel": 1813,
      "lha": 1814,
      "ainda": 1815,
      "fazer": 1816,
      "pou": 1817,
      "pergun": 1818,
      "deix": 1819,
      "tamb": 1820,
      "ala": 1821,
      "pelo": 1822,
      "também": 1823,
      "fica": 1824,
      "prec": 1825,
      "eles": 1826,
      "havia": 1827,
      "lá": 1828,
      "nas": 1829,
      "gem": 1830,
      "mem": 1831,
      "ós": 1832,
      "deu": 1833,
      "eiro": 1834,
      "..": 1835,
      "assim": 1836,
      "ior": 1837,
      "har": 1838,
      "aqui": 1839,
      "cul": 1840,
      "sar": 1841,
      "outra": 1842,
      "olhos": 1843,
      "ima": 1844,
      "mim": 1845,
      "ago": 1846,
      "pessoas": 1847,
      "eram": 1848,
      "eira": 1849,
      "pela": 1850,
      "coisa": 1851,
      "mão": 1852,
      "conh": 1853,
      "agora": 1854,
      "iam": 1855,
      "há": 1856,
      "suas": 1857,
      "guém": 1858,
      "cabe": 1859,
      "nem": 1860,
      "ível": 1861,
      "consegu": 1862,
      "trabal": 1863,
      "lev": 1864,
      "lem": 1865,
      "vai": 1866,
      "tei": 1867,
      "pró": 1868,
      "quem": 1869,
      "onde": 1870,
      "cabeça": 1871,
      "nunca": 1872,
      "mentos": 1873,
      "hum": 1874,
      "dele": 1875,
      "verdade": 1876,
      "tá": 1877,
      "hos": 1878,
      "algum": 1879,
      "dizer": 1880,
      "penas": 1881,
      "nós": 1882,
      "enquanto": 1883,
      "outro": 1884,
      "lho": 1885,
      "melhor": 1886,
      "primei": 1887,
      "iu": 1888,
      "apenas": 1889,
      "estou": 1890,
      "conte": 1891,
      "homem": 1892,
      "dois": 1893,
      "ças": 1894,
      "pouco": 1895,
      "senhor": 1896,
      "tando": 1897,
      "espera": 1898,
      "pai": 1899,
      "rios": 1900,
      "baix": 1901,
      "ase": 1902,
      "isas": 1903,
      "hora": 1904,
      "ficar": 1905,
      "seja": 1906,
      "ân": 1907,
      "clar": 1908,
      "inc": 1909,
      "fos": 1910,
      "ouvi": 1911,
      "vem": 1912,
      "tava": 1913,
      "ário": 1914,
      "sos": 1915,
      "inho": 1916,
      "rando": 1917,
      "ês": 1918,
      "coisas": 1919,
      "aconte": 1920,
      "lher": 1921,
      "anos": 1922,
      "talvez": 1923,
      "estão": 1924,
      "liv": 1925,
      "outros": 1926,
      "qualquer": 1927,
      "gou": 1928,
      "lí": 1929,
      "tivesse": 1930,
      "rado": 1931,
      "precisa": 1932,
      "mãe": 1933,
      "dela": 1934,
      "entra": 1935,
      "maior": 1936,
      "noite": 1937,
      "tiva": 1938,
      "pala": 1939,
      "ração": 1940,
      "deus": 1941,
      "sas": 1942,
      "inte": 1943,
      "fei": 1944,
      "palav": 1945,
      "trás": 1946,
      "cidade": 1947,
      "lugar": 1948,
      "vezes": 1949,
      "encontra": 1950,
      "tru": 1951,
      "eci": 1952,
      "ın": 1953,
      "bir": 1954,
      "yor": 1955,
      "ek": 1956,
      "dı": 1957,
      "ey": 1958,
      "tı": 1959,
      "mı": 1960,
      "iz": 1961,
      "ır": 1962,
      "gö": 1963,
      "sı": 1964,
      "bil": 1965,
      "lı": 1966,
      "üz": 1967,
      "iç": 1968,
      "iy": 1969,
      "ım": 1970,
      "uz": 1971,
      "cak": 1972,
      "iş": 1973,
      "ını": 1974,
      "iyor": 1975,
      "baş": 1976,
      "dü": 1977,
      "değ": 1978,
      "kar": 1979,
      "ev": 1980,
      "öy": 1981,
      "bun": 1982,
      "yap": 1983,
      "sun": 1984,
      "gör": 1985,
      "yı": 1986,
      "ki": 1987,
      "ara": 1988,
      "alı": 1989,
      "onu": 1990,
      "çı": 1991,
      "şey": 1992,
      "sın": 1993,
      "kı": 1994,
      "kad": 1995,
      "ağ": 1996,
      "değil": 1997,
      "ük": 1998,
      "çok": 1999,
      "şı": 2000,
      "ül": 2001,
      "için": 2002,
      "eye": 2003,
      "oldu": 2004,
      "mış": 2005,
      "kal": 2006,
      "mek": 2007,
      "öyle": 2008,
      "yordu": 2009,
      "yüz": 2010,
      "miş": 2011,
      "mak": 2012,
      "ola": 2013,
      "yan": 2014,
      "cek": 2015,
      "yorum": 2016,
      "bak": 2017,
      "üm": 2018,
      "ları": 2019,
      "oğ": 2020,
      "kadar": 2021,
      "arı": 2022,
      "ında": 2023,
      "gün": 2024,
      "yok": 2025,
      "yer": 2026,
      "dım": 2027,
      "daha": 2028,
      "ına": 2029,
      "dim": 2030,
      "bilir": 2031,
      "iki": 2032,
      "siz": 2033,
      "diğ": 2034,
      "bü": 2035,
      "düş": 2036,
      "üç": 2037,
      "unu": 2038,
      "aman": 2039,
      "fak": 2040,
      "ede": 2041,
      "sonra": 2042,
      "hiç": 2043,
      "aki": 2044,
      "ğı": 2045,
      "bul": 2046,
      "maz": 2047,
      "anla": 2048,
      "bura": 2049,
      "geç": 2050,
      "maya": 2051,
      "konu": 2052,
      "din": 2053,
      "tek": 2054,
      "zaman": 2055,
      "eler": 2056,
      "öz": 2057,
      "dır": 2058,
      "gibi": 2059,
      "şa": 2060,
      "leri": 2061,
      "kim": 2062,
      "ku": 2063,
      "fakat": 2064,
      "yar": 2065,
      "göz": 2066,
      "cı": 2067,
      "yorsun": 2068,
      "bek": 2069,
      "inde": 2070,
      "pek": 2071,
      "bunu": 2072,
      "lik": 2073,
      "iler": 2074,
      "edi": 2075,
      "öl": 2076,
      "sür": 2077,
      "sır": 2078,
      "çık": 2079,
      "sıl": 2080,
      "alar": 2081,
      "kes": 2082,
      "yak": 2083,
      "çek": 2084,
      "yıl": 2085,
      "ecek": 2086,
      "ız": 2087,
      "git": 2088,
      "kap": 2089,
      "ama": 2090,
      "ıl": 2091,
      "ların": 2092,
      "biz": 2093,
      "tır": 2094,
      "oy": 2095,
      "ancak": 2096,
      "doğ": 2097,
      "bana": 2098,
      "şim": 2099,
      "başla": 2100,
      "lü": 2101,
      "madı": 2102,
      "beni": 2103,
      "yük": 2104,
      "lık": 2105,
      "beş": 2106,
      "nasıl": 2107,
      "tık": 2108,
      "tür": 2109,
      "daki": 2110,
      "ceğ": 2111,
      "zı": 2112,
      "iyi": 2113,
      "dok": 2114,
      "benim": 2115,
      "cağ": 2116,
      "yen": 2117,
      "şu": 2118,
      "mez": 2119,
      "düşün": 2120,
      "kendi": 2121,
      "şimdi": 2122,
      "yol": 2123,
      "yu": 2124,
      "iste": 2125,
      "sek": 2126,
      "mam": 2127,
      "söyle": 2128,
      "dik": 2129,
      "kur": 2130,
      "olduğ": 2131,
      "sını": 2132,
      "biliyor": 2133,
      "kan": 2134,
      "yal": 2135,
      "meye": 2136,
      "muş": 2137,
      "kaç": 2138,
      "iye": 2139,
      "tü": 2140,
      "ef": 2141,
      "tım": 2142,
      "evet": 2143,
      "yet": 2144,
      "burada": 2145,
      "tim": 2146,
      "biraz": 2147,
      "kor": 2148,
      "doğru": 2149,
      "inin": 2150,
      "kız": 2151,
      "diye": 2152,
      "dör": 2153,
      "etti": 2154,
      "onun": 2155,
      "isti": 2156,
      "ği": 2157,
      "sana": 2158,
      "üş": 2159,
      "arka": 2160,
      "hayır": 2161,
      "karşı": 2162,
      "ile": 2163,
      "hak": 2164,
      "ıyor": 2165,
      "neden": 2166,
      "sev": 2167,
      "sız": 2168,
      "çocu": 2169,
      "çalı": 2170,
      "olur": 2171,
      "bır": 2172,
      "gir": 2173,
      "ise": 2174,
      "ih": 2175,
      "kır": 2176,
      "dön": 2177,
      "böyle": 2178,
      "seni": 2179,
      "!\"": 2180,
      "dört": 2181,
      "söy": 2182,
      "oş": 2183,
      "musun": 2184,
      "laş": 2185,
      "ip": 2186,
      "kay": 2187,
      "hem": 2188,
      "büyük": 2189,
      "aç": 2190,
      "bırak": 2191,
      "misin": 2192,
      "söz": 2193,
      "değiş": 2194,
      "ünü": 2195,
      "gül": 2196,
      "kö": 2197,
      "karı": 2198,
      "tamam": 2199,
      "olu": 2200,
      "yeni": 2201,
      "lam": 2202,
      "mıştı": 2203,
      "yaş": 2204,
      "iniz": 2205,
      "kadın": 2206,
      "bunun": 2207,
      "mey": 2208,
      "altı": 2209,
      "yi": 2210,
      "inden": 2211,
      "senin": 2212,
      "yat": 2213,
      "top": 2214,
      "isi": 2215,
      "dün": 2216,
      "hiçbir": 2217,
      "yon": 2218,
      "dın": 2219,
      "tün": 2220,
      "başka": 2221,
      "hep": 2222,
      "irmi": 2223,
      "devam": 2224,
      "olacak": 2225,
      "artık": 2226,
      "durum": 2227,
      "imiz": 2228,
      "üzel": 2229,
      "lerini": 2230,
      "sağ": 2231,
      "gerek": 2232,
      "yirmi": 2233,
      "şek": 2234,
      "bağ": 2235,
      "lara": 2236,
      "yür": 2237,
      "ması": 2238,
      "katı": 2239,
      "dedi": 2240,
      "gü": 2241,
      "sorun": 2242,
      "üne": 2243,
      "mız": 2244,
      "yapı": 2245,
      "mil": 2246,
      "ğını": 2247,
      "tara": 2248,
      "vardı": 2249,
      "konuş": 2250,
      "arak": 2251,
      "larak": 2252,
      "çocuk": 2253,
      "bütün": 2254,
      "ley": 2255,
      "dür": 2256,
      "güzel": 2257,
      "ayı": 2258,
      "yapa": 2259,
      "nı": 2260,
      "ayr": 2261,
      "öne": 2262,
      "yordum": 2263,
      "ban": 2264,
      "i̇ş": 2265,
      "dum": 2266,
      "yorlar": 2267,
      "larını": 2268,
      "çıkar": 2269,
      "zan": 2270,
      "seç": 2271,
      "liyor": 2272,
      "tak": 2273,
      "şık": 2274,
      "tekrar": 2275,
      "aş": 2276,
      "eş": 2277,
      "mişti": 2278,
      "kin": 2279,
      "imi": 2280,
      "eğ": 2281,
      "gidi": 2282,
      "leş": 2283,
      "başladı": 2284,
      "gide": 2285,
      "otur": 2286,
      "dde": 2287,
      "ından": 2288,
      "üzer": 2289,
      "ının": 2290,
      "nız": 2291,
      "uy": 2292,
      "yedi": 2293,
      "kat": 2294,
      "olarak": 2295,
      "ladı": 2296,
      "yalnız": 2297,
      "bah": 2298,
      "iyet": 2299,
      "sak": 2300,
      "açık": 2301,
      "sında": 2302,
      "...": 2303,
      "insan": 2304,
      "aynı": 2305,
      "eder": 2306,
      "istan": 2307,
      "uzun": 2308,
      "geri": 2309,
      "erek": 2310,
      "olan": 2311,
      "gerçek": 2312,
      "alan": 2313,
      "dış": 2314,
      "alık": 2315,
      "fark": 2316,
      "üst": 2317,
      "sade": 2318,
      "kiş": 2319,
      "ldı": 2320,
      "zor": 2321,
      "etir": 2322,
      "herkes": 2323,
      "ömer": 2324,
      "unda": 2325,
      "haf": 2326,
      "buna": 2327,
      "ydı": 2328,
      "peki": 2329,
      "adam": 2330,
      "haz": 2331,
      "sına": 2332,
      "kapı": 2333,
      "görüş": 2334,
      "sadece": 2335,
      "aldı": 2336,
      "geldi": 2337,
      "rz": 2338,
      "sz": 2339,
      "cz": 2340,
      "ię": 2341,
      "dz": 2342,
      "ał": 2343,
      "się": 2344,
      "rze": 2345,
      "że": 2346,
      "wy": 2347,
      "rzy": 2348,
      "ła": 2349,
      "ło": 2350,
      "ny": 2351,
      "dzie": 2352,
      "dzi": 2353,
      "czy": 2354,
      "cie": 2355,
      "prze": 2356,
      "dy": 2357,
      "kie": 2358,
      "ry": 2359,
      "ją": 2360,
      "ów": 2361,
      "przy": 2362,
      "mie": 2363,
      "szy": 2364,
      "cze": 2365,
      "bie": 2366,
      "cy": 2367,
      "nia": 2368,
      "ści": 2369,
      "sze": 2370,
      "jest": 2371,
      "ży": 2372,
      "ną": 2373,
      "któ": 2374,
      "ała": 2375,
      "mnie": 2376,
      "ły": 2377,
      "cza": 2378,
      "jak": 2379,
      "roz": 2380,
      "ró": 2381,
      "zna": 2382,
      "łu": 2383,
      "ść": 2384,
      "wia": 2385,
      "wszy": 2386,
      "spo": 2387,
      "gdy": 2388,
      "wał": 2389,
      "wię": 2390,
      "łem": 2391,
      "ję": 2392,
      "sk": 2393,
      "rę": 2394,
      "dob": 2395,
      "już": 2396,
      "bę": 2397,
      "ałem": 2398,
      "sza": 2399,
      "pod": 2400,
      "dla": 2401,
      "pan": 2402,
      "nę": 2403,
      "może": 2404,
      "śli": 2405,
      "ało": 2406,
      "lko": 2407,
      "nych": 2408,
      "powie": 2409,
      "cię": 2410,
      "tylko": 2411,
      "naj": 2412,
      "tego": 2413,
      "ski": 2414,
      "nego": 2415,
      "wszyst": 2416,
      "szcze": 2417,
      "jed": 2418,
      "jej": 2419,
      "two": 2420,
      "ąd": 2421,
      "śmy": 2422,
      "czę": 2423,
      "wać": 2424,
      "jego": 2425,
      "ża": 2426,
      "sy": 2427,
      "praw": 2428,
      "tym": 2429,
      "który": 2430,
      "ały": 2431,
      "trze": 2432,
      "niej": 2433,
      "nym": 2434,
      "gło": 2435,
      "jąc": 2436,
      "mówi": 2437,
      "ska": 2438,
      "nej": 2439,
      "słu": 2440,
      "wła": 2441,
      "będzie": 2442,
      "dę": 2443,
      "pó": 2444,
      "bez": 2445,
      "nic": 2446,
      "pła": 2447,
      "ście": 2448,
      "są": 2449,
      "trzy": 2450,
      "kiem": 2451,
      "był": 2452,
      "mog": 2453,
      "robi": 2454,
      "tam": 2455,
      "mię": 2456,
      "zy": 2457,
      "pew": 2458,
      "myś": 2459,
      "przed": 2460,
      "sko": 2461,
      "które": 2462,
      "lę": 2463,
      "wsze": 2464,
      "ąc": 2465,
      "było": 2466,
      "sobie": 2467,
      "py": 2468,
      "cią": 2469,
      "jeszcze": 2470,
      "tę": 2471,
      "czas": 2472,
      "szę": 2473,
      "gł": 2474,
      "kę": 2475,
      "czu": 2476,
      "przez": 2477,
      "sło": 2478,
      "wz": 2479,
      "kto": 2480,
      "ków": 2481,
      "czo": 2482,
      "liśmy": 2483,
      "więc": 2484,
      "rą": 2485,
      "wó": 2486,
      "rza": 2487,
      "ności": 2488,
      "wet": 2489,
      "nął": 2490,
      "śmie": 2491,
      "nawet": 2492,
      "musi": 2493,
      "swo": 2494,
      "tej": 2495,
      "wą": 2496,
      "wu": 2497,
      "wią": 2498,
      "niu": 2499,
      "czą": 2500,
      "dzo": 2501,
      "skie": 2502,
      "jeśli": 2503,
      "czego": 2504,
      "chy": 2505,
      "dł": 2506,
      "tych": 2507,
      "bym": 2508,
      "żo": 2509,
      "eś": 2510,
      "sią": 2511,
      "kiedy": 2512,
      "wró": 2513,
      "dze": 2514,
      "dro": 2515,
      "rów": 2516,
      "pani": 2517,
      "kul": 2518,
      "nad": 2519,
      "chwi": 2520,
      "nim": 2521,
      "być": 2522,
      "chodzi": 2523,
      "nio": 2524,
      "dobrze": 2525,
      "teraz": 2526,
      "wokul": 2527,
      "coś": 2528,
      "kł": 2529,
      "pier": 2530,
      "gdzie": 2531,
      "dzy": 2532,
      "pię": 2533,
      "dź": 2534,
      "ką": 2535,
      "gó": 2536,
      "zda": 2537,
      "chce": 2538,
      "stę": 2539,
      "świa": 2540,
      "wszystko": 2541,
      "peł": 2542,
      "wiem": 2543,
      "wiel": 2544,
      "każ": 2545,
      "rzu": 2546,
      "sły": 2547,
      "jedna": 2548,
      "myśl": 2549,
      "mój": 2550,
      "jestem": 2551,
      "óż": 2552,
      "miej": 2553,
      "moż": 2554,
      "kła": 2555,
      "resz": 2556,
      "dłu": 2557,
      "stwo": 2558,
      "nię": 2559,
      "masz": 2560,
      "żeby": 2561,
      "niem": 2562,
      "jakie": 2563,
      "sty": 2564,
      "nią": 2565,
      "wej": 2566,
      "oj": 2567,
      "sła": 2568,
      "ność": 2569,
      "zło": 2570,
      "szczę": 2571,
      "lej": 2572,
      "wego": 2573,
      "cał": 2574,
      "dział": 2575,
      "kich": 2576,
      "dza": 2577,
      "dzię": 2578,
      "oczy": 2579,
      "zosta": 2580,
      "czło": 2581,
      "nam": 2582,
      "kil": 2583,
      "szu": 2584,
      "wę": 2585,
      "miał": 2586,
      "strze": 2587,
      "cej": 2588,
      "ej": 2589,
      "znaj": 2590,
      "dać": 2591,
      "miejs": 2592,
      "kró": 2593,
      "kry": 2594,
      "bardzo": 2595,
      "śnie": 2596,
      "lą": 2597,
      "gie": 2598,
      "ciebie": 2599,
      "dni": 2600,
      "potrze": 2601,
      "wokulski": 2602,
      "uwa": 2603,
      "umie": 2604,
      "jednak": 2605,
      "kra": 2606,
      "wróci": 2607,
      "człowie": 2608,
      "czyć": 2609,
      "była": 2610,
      "żeli": 2611,
      "mę": 2612,
      "cę": 2613,
      "zrobi": 2614,
      "mogę": 2615,
      "prowa": 2616,
      "rem": 2617,
      "niech": 2618,
      "cznie": 2619,
      "kro": 2620,
      "tą": 2621,
      "chci": 2622,
      "bro": 2623,
      "dzieć": 2624,
      "szą": 2625,
      "pad": 2626,
      "trz": 2627,
      "jem": 2628,
      "tów": 2629,
      "dru": 2630,
      "taj": 2631,
      "rzekł": 2632,
      "niego": 2633,
      "takie": 2634,
      "wała": 2635,
      "towa": 2636,
      "kapła": 2637,
      "widzi": 2638,
      "podob": 2639,
      "dzę": 2640,
      "tał": 2641,
      "stęp": 2642,
      "bą": 2643,
      "poko": 2644,
      "wem": 2645,
      "gę": 2646,
      "aby": 2647,
      "albo": 2648,
      "spra": 2649,
      "zno": 2650,
      "smo": 2651,
      "jesz": 2652,
      "księ": 2653,
      "jesteś": 2654,
      "poz": 2655,
      "nigdy": 2656,
      "ksią": 2657,
      "cóż": 2658,
      "ws": 2659,
      "pow": 2660,
      "tka": 2661,
      "świe": 2662,
      "szka": 2663,
      "samo": 2664,
      "sł": 2665,
      "rzę": 2666,
      "nale": 2667,
      "chcesz": 2668,
      "nik": 2669,
      "pę": 2670,
      "chyba": 2671,
      "ciąg": 2672,
      "jący": 2673,
      "woj": 2674,
      "nasze": 2675,
      "mniej": 2676,
      "więcej": 2677,
      "zwy": 2678,
      "osta": 2679,
      "waż": 2680,
      "śmier": 2681,
      "wier": 2682,
      "dzą": 2683,
      "zaś": 2684,
      "gdyby": 2685,
      "jaki": 2686,
      "wol": 2687,
      "win": 2688,
      "dą": 2689,
      "ścia": 2690,
      "rozma": 2691,
      "wal": 2692,
      "panie": 2693,
      "star": 2694,
      "kaz": 2695,
      "jeżeli": 2696,
      "wra": 2697,
      "koń": 2698,
      "siebie": 2699,
      "znowu": 2700,
      "czem": 2701,
      "stwa": 2702,
      "isto": 2703,
      "pół": 2704,
      "dał": 2705,
      "kobie": 2706,
      "ałam": 2707,
      "wych": 2708,
      "cesa": 2709,
      "nich": 2710,
      "zawsze": 2711,
      "dzić": 2712,
      "też": 2713,
      "lepie": 2714,
      "proszę": 2715,
      "kre": 2716,
      "twa": 2717,
      "łą": 2718,
      "chu": 2719,
      "cą": 2720,
      "prz": 2721,
      "łe": 2722,
      "szedł": 2723,
      "odpowie": 2724,
      "myśli": 2725,
      "świą": 2726,
      "ź": 2727,
      "ł": 2728,
      "&": 2729,
      "=": 2730,
      "ă": 2731,
      "đ": 2732,
      "ţ": 2733,
      "–": 2734,
      "‘": 2735,
      "ij": 2736,
      "aa": 2737,
      "een": 2738,
      "het": 2739,
      "aar": 2740,
      "oor": 2741,
      "ijn": 2742,
      "dat": 2743,
      "oe": 2744,
      "ijk": 2745,
      "aan": 2746,
      "voor": 2747,
      "iet": 2748,
      "zijn": 2749,
      "niet": 2750,
      "oo": 2751,
      "moet": 2752,
      "heb": 2753,
      "uit": 2754,
      "wij": 2755,
      "aat": 2756,
      "lijk": 2757,
      "sl": 2758,
      "daar": 2759,
      "deze": 2760,
      "worden": 2761,
      "moeten": 2762,
      "onder": 2763,
      "hebben": 2764,
      "ook": 2765,
      "ct": 2766,
      "nog": 2767,
      "aal": 2768,
      "eer": 2769,
      "bij": 2770,
      "mijn": 2771,
      "kom": 2772,
      "atie": 2773,
      "eft": 2774,
      "kel": 2775,
      "rij": 2776,
      "heid": 2777,
      "af": 2778,
      "stel": 2779,
      "maar": 2780,
      "wee": 2781,
      "heeft": 2782,
      "waar": 2783,
      "eren": 2784,
      "wat": 2785,
      "wil": 2786,
      "aag": 2787,
      "bet": 2788,
      "hij": 2789,
      "kun": 2790,
      "uw": 2791,
      "dt": 2792,
      "door": 2793,
      "tij": 2794,
      "ond": 2795,
      "geen": 2796,
      "gev": 2797,
      "veel": 2798,
      "naar": 2799,
      "aten": 2800,
      "kunnen": 2801,
      "echt": 2802,
      "goe": 2803,
      "twee": 2804,
      "delijk": 2805,
      "uur": 2806,
      "toe": 2807,
      "meer": 2808,
      "onze": 2809,
      "tijd": 2810,
      "hoe": 2811,
      "tot": 2812,
      "zou": 2813,
      "aak": 2814,
      "amen": 2815,
      "woor": 2816,
      "wordt": 2817,
      "gelijk": 2818,
      "gaan": 2819,
      "ker": 2820,
      "eld": 2821,
      "hou": 2822,
      "zel": 2823,
      "tegen": 2824,
      "komen": 2825,
      "werk": 2826,
      "goed": 2827,
      "zal": 2828,
      "zij": 2829,
      "slag": 2830,
      "zien": 2831,
      "echter": 2832,
      "itie": 2833,
      "tie": 2834,
      "elijk": 2835,
      "ische": 2836,
      "belan": 2837,
      "haar": 2838,
      "vr": 2839,
      "grijk": 2840,
      "doen": 2841,
      "land": 2842,
      "belangrijk": 2843,
      "open": 2844,
      "ctie": 2845,
      "zelf": 2846,
      "mij": 2847,
      "iteit": 2848,
      "stem": 2849,
      "mee": 2850,
      "aren": 2851,
      "dien": 2852,
      "gaat": 2853,
      "prob": 2854,
      "moe": 2855,
      "ullen": 2856,
      "zich": 2857,
      "daarom": 2858,
      "orm": 2859,
      "staat": 2860,
      "zit": 2861,
      "dui": 2862,
      "dus": 2863,
      "ds": 2864,
      "verslag": 2865,
      "kelijk": 2866,
      "proble": 2867,
      "schap": 2868,
      "gd": 2869,
      "hun": 2870,
      "erd": 2871,
      "zet": 2872,
      "staan": 2873,
      "maal": 2874,
      "inder": 2875,
      "eid": 2876,
      "kken": 2877,
      "ged": 2878,
      "zullen": 2879,
      "mensen": 2880,
      "jaar": 2881,
      "regel": 2882,
      "ieder": 2883,
      "volgen": 2884,
      "geven": 2885,
      "even": 2886,
      "blij": 2887,
      "ië": 2888,
      "uwe": 2889,
      "maken": 2890,
      "oek": 2891,
      "nieuwe": 2892,
      "baar": 2893,
      "andere": 2894,
      "ruik": 2895,
      "agen": 2896,
      "ouw": 2897,
      "willen": 2898,
      "aakt": 2899,
      "hoo": 2900,
      "anden": 2901,
      "lig": 2902,
      "samen": 2903,
      "zeer": 2904,
      "duidelijk": 2905,
      "antwoor": 2906,
      "heel": 2907,
      "punt": 2908,
      "houden": 2909,
      "vraag": 2910,
      "gele": 2911,
      "eens": 2912,
      "besch": 2913,
      "omen": 2914,
      "erg": 2915,
      "doel": 2916,
      "dag": 2917,
      "uren": 2918,
      "ings": 2919,
      "oren": 2920,
      "delen": 2921,
      "steun": 2922,
      "innen": 2923,
      "pol": 2924,
      "oon": 2925,
      "sn": 2926,
      "zonder": 2927,
      "nodig": 2928,
      "alleen": 2929,
      "mid": 2930,
      "ragen": 2931,
      "iets": 2932,
      "versch": 2933,
      "gebruik": 2934,
      "rouw": 2935,
      "stellen": 2936,
      "menten": 2937,
      "eerste": 2938,
      "laat": 2939,
      "groot": 2940,
      "ood": 2941,
      "toch": 2942,
      "laten": 2943,
      "aard": 2944,
      "sle": 2945,
      "deel": 2946,
      "plaat": 2947,
      "ree": 2948,
      "betre": 2949,
      "lid": 2950,
      "uiten": 2951,
      "racht": 2952,
      "beleid": 2953,
      "stie": 2954,
      "staten": 2955,
      "ggen": 2956,
      "reken": 2957,
      "alen": 2958,
      "ming": 2959,
      "mogelijk": 2960,
      "grote": 2961,
      "altijd": 2962,
      "enkel": 2963,
      "wik": 2964,
      "politie": 2965,
      "elk": 2966,
      "handel": 2967,
      "kwe": 2968,
      "maat": 2969,
      "elen": 2970,
      "vrij": 2971,
      "jes": 2972,
      "aam": 2973,
      "huis": 2974,
      "weer": 2975,
      "lidstaten": 2976,
      "king": 2977,
      "kle": 2978,
      "bed": 2979,
      "geval": 2980,
      "wikkel": 2981,
      "kwestie": 2982,
      "stee": 2983,
      "hel": 2984,
      "komst": 2985,
      "iden": 2986,
      "eerd": 2987,
      "tweede": 2988,
      "probleem": 2989,
      "ussen": 2990,
      "snel": 2991,
      "tig": 2992,
      "ult": 2993,
      "nemen": 2994,
      "commis": 2995,
      "verschil": 2996,
      "zoek": 2997,
      "krij": 2998,
      "graag": 2999,
      "denk": 3000,
      "landen": 3001,
      "reden": 3002,
      "besl": 3003,
      "oeg": 3004,
      "beter": 3005,
      "heden": 3006,
      "mag": 3007,
      "boven": 3008,
      "cont": 3009,
      "fd": 3010,
      "hele": 3011,
      "vier": 3012,
      "gez": 3013,
      "kw": 3014,
      "aas": 3015,
      "ontwikkel": 3016,
      "drie": 3017,
      "vaak": 3018,
      "plaats": 3019,
      "gang": 3020,
      "ijf": 3021,
      "natuur": 3022,
      "tussen": 3023,
      "bat": 3024,
      "komt": 3025,
      "wacht": 3026,
      "aad": 3027,
      "achter": 3028,
      "gebie": 3029,
      "verk": 3030,
      "ligt": 3031,
      "nieuw": 3032,
      "vand": 3033,
      "ý": 3034,
      "ď": 3035,
      "ě": 3036,
      "ř": 3037,
      "ť": 3038,
      "ů": 3039,
      "„": 3040,
      "ní": 3041,
      "ně": 3042,
      "ře": 3043,
      "ná": 3044,
      "vě": 3045,
      "vá": 3046,
      "rá": 3047,
      "vy": 3048,
      "mě": 3049,
      "ři": 3050,
      "ří": 3051,
      "že": 3052,
      "jí": 3053,
      "vý": 3054,
      "ji": 3055,
      "dě": 3056,
      "če": 3057,
      "tě": 3058,
      "ky": 3059,
      "še": 3060,
      "ké": 3061,
      "ší": 3062,
      "pře": 3063,
      "ví": 3064,
      "ný": 3065,
      "ži": 3066,
      "má": 3067,
      "cí": 3068,
      "zá": 3069,
      "ské": 3070,
      "dá": 3071,
      "byl": 3072,
      "tí": 3073,
      "pří": 3074,
      "při": 3075,
      "či": 3076,
      "vní": 3077,
      "ča": 3078,
      "dí": 3079,
      "dní": 3080,
      "ká": 3081,
      "nou": 3082,
      "vět": 3083,
      "pě": 3084,
      "kou": 3085,
      "ých": 3086,
      "bě": 3087,
      "prá": 3088,
      "jako": 3089,
      "ží": 3090,
      "zí": 3091,
      "jsou": 3092,
      "jsem": 3093,
      "lní": 3094,
      "cké": 3095,
      "vat": 3096,
      "před": 3097,
      "hla": 3098,
      "stá": 3099,
      "čí": 3100,
      "ši": 3101,
      "kla": 3102,
      "ště": 3103,
      "lou": 3104,
      "mů": 3105,
      "chá": 3106,
      "pů": 3107,
      "také": 3108,
      "dů": 3109,
      "nost": 3110,
      "tře": 3111,
      "sku": 3112,
      "vše": 3113,
      "tní": 3114,
      "byla": 3115,
      "ční": 3116,
      "jeho": 3117,
      "bý": 3118,
      "vání": 3119,
      "ných": 3120,
      "tři": 3121,
      "vz": 3122,
      "stře": 3123,
      "dva": 3124,
      "hle": 3125,
      "čá": 3126,
      "nosti": 3127,
      "vš": 3128,
      "hra": 3129,
      "jen": 3130,
      "slo": 3131,
      "však": 3132,
      "kdy": 3133,
      "bylo": 3134,
      "bude": 3135,
      "jší": 3136,
      "vých": 3137,
      "ním": 3138,
      "sm": 3139,
      "koli": 3140,
      "rů": 3141,
      "může": 3142,
      "není": 3143,
      "hod": 3144,
      "bí": 3145,
      "tý": 3146,
      "stě": 3147,
      "uje": 3148,
      "sá": 3149,
      "pět": 3150,
      "krá": 3151,
      "tom": 3152,
      "ství": 3153,
      "vně": 3154,
      "sed": 3155,
      "své": 3156,
      "pí": 3157,
      "musí": 3158,
      "už": 3159,
      "tím": 3160,
      "jící": 3161,
      "jedno": 3162,
      "čas": 3163,
      "čty": 3164,
      "ský": 3165,
      "evro": 3166,
      "toho": 3167,
      "hy": 3168,
      "kter": 3169,
      "rní": 3170,
      "stí": 3171,
      "svě": 3172,
      "pak": 3173,
      "všech": 3174,
      "ků": 3175,
      "ng": 3176,
      "ád": 3177,
      "chází": 3178,
      "být": 3179,
      "první": 3180,
      "mno": 3181,
      "ského": 3182,
      "pá": 3183,
      "nebo": 3184,
      "kem": 3185,
      "sla": 3186,
      "ného": 3187,
      "zde": 3188,
      "další": 3189,
      "řa": 3190,
      "čtyři": 3191,
      "hrá": 3192,
      "druh": 3193,
      "lně": 3194,
      "vla": 3195,
      "ských": 3196,
      "ško": 3197,
      "půso": 3198,
      "proto": 3199,
      "vů": 3200,
      "ská": 3201,
      "šest": 3202,
      "dně": 3203,
      "ještě": 3204,
      "mezi": 3205,
      "několi": 3206,
      "již": 3207,
      "čně": 3208,
      "slu": 3209,
      "zná": 3210,
      "sedm": 3211,
      "vlá": 3212,
      "osm": 3213,
      "byly": 3214,
      "vám": 3215,
      "cký": 3216,
      "tech": 3217,
      "ději": 3218,
      "velmi": 3219,
      "leži": 3220,
      "vala": 3221,
      "lý": 3222,
      "tvo": 3223,
      "spole": 3224,
      "stup": 3225,
      "mož": 3226,
      "evrop": 3227,
      "stal": 3228,
      "jde": 3229,
      "rodi": 3230,
      "její": 3231,
      "poli": 3232,
      "devět": 3233,
      "sme": 3234,
      "až": 3235,
      "této": 3236,
      "tento": 3237,
      "kaž": 3238,
      "nula": 3239,
      "bych": 3240,
      "moc": 3241,
      "stou": 3242,
      "kdo": 3243,
      "zd": 3244,
      "praco": 3245,
      "tomu": 3246,
      "ným": 3247,
      "živo": 3248,
      "zem": 3249,
      "násle": 3250,
      "sky": 3251,
      "jich": 3252,
      "měl": 3253,
      "děla": 3254,
      "jsme": 3255,
      "nice": 3256,
      "stej": 3257,
      "stní": 3258,
      "náro": 3259,
      "nit": 3260,
      "později": 3261,
      "tako": 3262,
      "nce": 3263,
      "čer": 3264,
      "ším": 3265,
      "něco": 3266,
      "vál": 3267,
      "řej": 3268,
      "krát": 3269,
      "ální": 3270,
      "asi": 3271,
      "které": 3272,
      "stav": 3273,
      "mají": 3274,
      "mys": 3275,
      "době": 3276,
      "sně": 3277,
      "zku": 3278,
      "tů": 3279,
      "chod": 3280,
      "spě": 3281,
      "jejich": 3282,
      "součas": 3283,
      "vali": 3284,
      "kte": 3285,
      "prů": 3286,
      "zení": 3287,
      "pat": 3288,
      "potře": 3289,
      "dnes": 3290,
      "zemí": 3291,
      "znam": 3292,
      "mám": 3293,
      "tedy": 3294,
      "hlavní": 3295,
      "použí": 3296,
      "bní": 3297,
      "vede": 3298,
      "lep": 3299,
      "jek": 3300,
      "prav": 3301,
      "politi": 3302,
      "dne": 3303,
      "čení": 3304,
      "než": 3305,
      "děl": 3306,
      "čo": 3307,
      "cích": 3308,
      "sté": 3309,
      "dlou": 3310,
      "několik": 3311,
      "vyu": 3312,
      "ckých": 3313,
      "nové": 3314,
      "čin": 3315,
      "dělá": 3316,
      "ký": 3317,
      "obla": 3318,
      "podle": 3319,
      "důleži": 3320,
      "poku": 3321,
      "kone": 3322,
      "dý": 3323,
      "dvě": 3324,
      "žád": 3325,
      "nout": 3326,
      "tku": 3327,
      "tvr": 3328,
      "ckého": 3329,
      "rov": 3330,
      "tele": 3331,
      "psa": 3332,
      "svět": 3333,
      "tivní": 3334,
      "dosta": 3335,
      "šel": 3336,
      "druhé": 3337,
      "skou": 3338,
      "žo": 3339,
      "jedná": 3340,
      "význam": 3341,
      "problé": 3342,
      "publi": 3343,
      "ván": 3344,
      "odpo": 3345,
      "podpo": 3346,
      "dle": 3347,
      "jaké": 3348,
      "šení": 3349,
      "vím": 3350,
      "během": 3351,
      "nachází": 3352,
      "slou": 3353,
      "pouze": 3354,
      "otá": 3355,
      "plo": 3356,
      "tové": 3357,
      "větši": 3358,
      "komi": 3359,
      "vají": 3360,
      "tyto": 3361,
      "zápa": 3362,
      "změ": 3363,
      "moh": 3364,
      "více": 3365,
      "společ": 3366,
      "auto": 3367,
      "proti": 3368,
      "dět": 3369,
      "cháze": 3370,
      "žel": 3371,
      "«": 3372,
      "»": 3373,
      "а": 3374,
      "б": 3375,
      "в": 3376,
      "г": 3377,
      "д": 3378,
      "е": 3379,
      "ж": 3380,
      "з": 3381,
      "и": 3382,
      "й": 3383,
      "к": 3384,
      "л": 3385,
      "м": 3386,
      "н": 3387,
      "о": 3388,
      "п": 3389,
      "р": 3390,
      "с": 3391,
      "т": 3392,
      "у": 3393,
      "ф": 3394,
      "х": 3395,
      "ц": 3396,
      "ч": 3397,
      "ш": 3398,
      "щ": 3399,
      "ъ": 3400,
      "ы": 3401,
      "ь": 3402,
      "э": 3403,
      "ю": 3404,
      "я": 3405,
      "ё": 3406,
      "‑": 3407,
      "−": 3408,
      "ст": 3409,
      "ен": 3410,
      "но": 3411,
      "на": 3412,
      "пр": 3413,
      "то": 3414,
      "по": 3415,
      "ра": 3416,
      "го": 3417,
      "ко": 3418,
      "не": 3419,
      "во": 3420,
      "ва": 3421,
      "ет": 3422,
      "ер": 3423,
      "ни": 3424,
      "ел": 3425,
      "ит": 3426,
      "ны": 3427,
      "за": 3428,
      "ро": 3429,
      "ени": 3430,
      "ка": 3431,
      "ли": 3432,
      "ем": 3433,
      "да": 3434,
      "об": 3435,
      "ла": 3436,
      "до": 3437,
      "ся": 3438,
      "ть": 3439,
      "от": 3440,
      "ло": 3441,
      "ль": 3442,
      "ед": 3443,
      "со": 3444,
      "ми": 3445,
      "ре": 3446,
      "мо": 3447,
      "ци": 3448,
      "про": 3449,
      "та": 3450,
      "это": 3451,
      "ки": 3452,
      "ру": 3453,
      "при": 3454,
      "ти": 3455,
      "се": 3456,
      "ста": 3457,
      "вы": 3458,
      "мы": 3459,
      "ви": 3460,
      "бы": 3461,
      "ма": 3462,
      "ес": 3463,
      "ля": 3464,
      "сти": 3465,
      "ле": 3466,
      "что": 3467,
      "ме": 3468,
      "ри": 3469,
      "ча": 3470,
      "од": 3471,
      "ей": 3472,
      "ель": 3473,
      "ения": 3474,
      "га": 3475,
      "ну": 3476,
      "си": 3477,
      "па": 3478,
      "раз": 3479,
      "бо": 3480,
      "сто": 3481,
      "су": 3482,
      "са": 3483,
      "ду": 3484,
      "его": 3485,
      "ест": 3486,
      "ин": 3487,
      "ить": 3488,
      "из": 3489,
      "же": 3490,
      "му": 3491,
      "пер": 3492,
      "под": 3493,
      "ение": 3494,
      "сь": 3495,
      "ку": 3496,
      "пред": 3497,
      "ного": 3498,
      "ных": 3499,
      "вер": 3500,
      "те": 3501,
      "ной": 3502,
      "ции": 3503,
      "де": 3504,
      "ры": 3505,
      "дел": 3506,
      "лю": 3507,
      "ве": 3508,
      "он": 3509,
      "мен": 3510,
      "ги": 3511,
      "ня": 3512,
      "бу": 3513,
      "пра": 3514,
      "все": 3515,
      "ется": 3516,
      "сть": 3517,
      "жа": 3518,
      "дол": 3519,
      "жи": 3520,
      "бе": 3521,
      "кон": 3522,
      "сл": 3523,
      "ши": 3524,
      "ди": 3525,
      "ств": 3526,
      "ско": 3527,
      "ные": 3528,
      "чи": 3529,
      "ют": 3530,
      "дер": 3531,
      "стра": 3532,
      "ты": 3533,
      "ход": 3534,
      "щи": 3535,
      "зо": 3536,
      "зна": 3537,
      "ности": 3538,
      "чес": 3539,
      "вля": 3540,
      "вать": 3541,
      "ор": 3542,
      "пол": 3543,
      "вет": 3544,
      "так": 3545,
      "ша": 3546,
      "ту": 3547,
      "сво": 3548,
      "пре": 3549,
      "она": 3550,
      "итель": 3551,
      "ный": 3552,
      "сло": 3553,
      "как": 3554,
      "вл": 3555,
      "ность": 3556,
      "хо": 3557,
      "мож": 3558,
      "пе": 3559,
      "для": 3560,
      "ния": 3561,
      "ное": 3562,
      "рас": 3563,
      "долж": 3564,
      "дар": 3565,
      "тель": 3566,
      "ска": 3567,
      "пу": 3568,
      "ство": 3569,
      "кото": 3570,
      "раб": 3571,
      "ее": 3572,
      "род": 3573,
      "эти": 3574,
      "соб": 3575,
      "ору": 3576,
      "жен": 3577,
      "ным": 3578,
      "ити": 3579,
      "ние": 3580,
      "ком": 3581,
      "дет": 3582,
      "сту": 3583,
      "гу": 3584,
      "пи": 3585,
      "меж": 3586,
      "ению": 3587,
      "тер": 3588,
      "работ": 3589,
      "воз": 3590,
      "ция": 3591,
      "кой": 3592,
      "щест": 3593,
      "гра": 3594,
      "зи": 3595,
      "ря": 3596,
      "между": 3597,
      "ства": 3598,
      "вс": 3599,
      "ело": 3600,
      "ше": 3601,
      "мер": 3602,
      "ба": 3603,
      "зы": 3604,
      "лу": 3605,
      "аль": 3606,
      "дей": 3607,
      "гла": 3608,
      "народ": 3609,
      "кти": 3610,
      "предста": 3611,
      "лся": 3612,
      "явля": 3613,
      "ски": 3614,
      "нов": 3615,
      "един": 3616,
      "ров": 3617,
      "ис": 3618,
      "нима": 3619,
      "рем": 3620,
      "ходи": 3621,
      "также": 3622,
      "дру": 3623,
      "ать": 3624,
      "след": 3625,
      "гово": 3626,
      "ная": 3627,
      "ющи": 3628,
      "ень": 3629,
      "которы": 3630,
      "хот": 3631,
      "ву": 3632,
      "их": 3633,
      "ему": 3634,
      "чит": 3635,
      "важ": 3636,
      "орга": 3637,
      "чески": 3638,
      "ще": 3639,
      "ке": 3640,
      "ха": 3641,
      "пос": 3642,
      "том": 3643,
      "боль": 3644,
      "мне": 3645,
      "пас": 3646,
      "объ": 3647,
      "прав": 3648,
      "конф": 3649,
      "слу": 3650,
      "поддер": 3651,
      "стви": 3652,
      "наш": 3653,
      "лько": 3654,
      "стоя": 3655,
      "ную": 3656,
      "лем": 3657,
      "енных": 3658,
      "кра": 3659,
      "ды": 3660,
      "международ": 3661,
      "гда": 3662,
      "необ": 3663,
      "госу": 3664,
      "ству": 3665,
      "ении": 3666,
      "государ": 3667,
      "кто": 3668,
      "им": 3669,
      "чест": 3670,
      "рет": 3671,
      "вопро": 3672,
      "лен": 3673,
      "ели": 3674,
      "рова": 3675,
      "ций": 3676,
      "нам": 3677,
      "этой": 3678,
      "жения": 3679,
      "необходи": 3680,
      "меня": 3681,
      "было": 3682,
      "сили": 3683,
      "фи": 3684,
      "вя": 3685,
      "шь": 3686,
      "этого": 3687,
      "они": 3688,
      "органи": 3689,
      "безо": 3690,
      "проб": 3691,
      "име": 3692,
      "реш": 3693,
      "би": 3694,
      "безопас": 3695,
      "ются": 3696,
      "оста": 3697,
      "енно": 3698,
      "год": 3699,
      "ела": 3700,
      "представ": 3701,
      "ться": 3702,
      "слово": 3703,
      "организа": 3704,
      "должны": 3705,
      "этом": 3706,
      "бла": 3707,
      "че": 3708,
      "чу": 3709,
      "благо": 3710,
      "этому": 3711,
      "врем": 3712,
      "спе": 3713,
      "ном": 3714,
      "ений": 3715,
      "спо": 3716,
      "нас": 3717,
      "нет": 3718,
      "зу": 3719,
      "вед": 3720,
      "еще": 3721,
      "сказа": 3722,
      "сей": 3723,
      "ерен": 3724,
      "дан": 3725,
      "сам": 3726,
      "еля": 3727,
      "ран": 3728,
      "зыва": 3729,
      "является": 3730,
      "будет": 3731,
      "ктив": 3732,
      "тре": 3733,
      "деле": 3734,
      "мот": 3735,
      "конферен": 3736,
      "лась": 3737,
      "час": 3738,
      "сторо": 3739,
      "кого": 3740,
      "ез": 3741,
      "ней": 3742,
      "ос": 3743,
      "лись": 3744,
      "разору": 3745,
      "пере": 3746,
      "сси": 3747,
      "ными": 3748,
      "проц": 3749,
      "голо": 3750,
      "чело": 3751,
      "боле": 3752,
      "челове": 3753,
      "сер": 3754,
      "пл": 3755,
      "чет": 3756,
      "стран": 3757,
      "пя": 3758,
      "был": 3759,
      "кла": 3760,
      "тов": 3761,
      "жд": 3762,
      "дела": 3763,
      "ера": 3764,
      "уже": 3765,
      "совет": 3766,
      "ген": 3767,
      "безопасности": 3768,
      "ца": 3769,
      "седа": 3770,
      "поз": 3771,
      "ответ": 3772,
      "проблем": 3773,
      "нако": 3774,
      "тем": 3775,
      "доста": 3776,
      "пы": 3777,
      "ща": 3778,
      "вой": 3779,
      "сущест": 3780,
      "необходимо": 3781,
      "быть": 3782,
      "может": 3783,
      "дем": 3784,
      "чтобы": 3785,
      "ек": 3786,
      "чер": 3787,
      "усили": 3788,
      "рес": 3789,
      "руд": 3790,
      "единенных": 3791,
      "доб": 3792,
      "дости": 3793,
      "ствен": 3794,
      "ядер": 3795,
      "годня": 3796,
      "каза": 3797,
      "сегодня": 3798,
      "сейчас": 3799,
      "только": 3800,
      "вод": 3801,
      "есь": 3802,
      "много": 3803,
      "буду": 3804,
      "ев": 3805,
      "есть": 3806,
      "три": 3807,
      "общест": 3808,
      "явл": 3809,
      "высту": 3810,
      "ред": 3811,
      "счит": 3812,
      "сит": 3813,
      "делега": 3814,
      "лож": 3815,
      "этот": 3816,
      "фор": 3817,
      "клю": 3818,
      "возмож": 3819,
      "вания": 3820,
      "бли": 3821,
      "или": 3822,
      "вз": 3823,
      "наций": 3824,
      "ского": 3825,
      "приня": 3826,
      "пла": 3827,
      "оч": 3828,
      "иться": 3829,
      "сте": 3830,
      "наши": 3831,
      "которые": 3832,
      "ар": 3833,
      "имеет": 3834,
      "сот": 3835,
      "знач": 3836,
      "перь": 3837,
      "следу": 3838,
      "ены": 3839,
      "таки": 3840,
      "объединенных": 3841,
      "стро": 3842,
      "теперь": 3843,
      "бле": 3844,
      "благодар": 3845,
      "разв": 3846,
      "ан": 3847,
      "жива": 3848,
      "очень": 3849,
      "ят": 3850,
      "без": 3851,
      "обес": 3852,
      "гро": 3853,
      "лось": 3854,
      "сы": 3855,
      "организации": 3856,
      "член": 3857,
      "того": 3858,
      "ональ": 3859,
      "жда": 3860,
      "всех": 3861,
      "свя": 3862,
      "более": 3863,
      "сов": 3864,
      "когда": 3865,
      "вот": 3866,
      "кре": 3867,
      "кры": 3868,
      "поэтому": 3869,
      "воль": 3870,
      "ой": 3871,
      "генера": 3872,
      "чем": 3873,
      "лы": 3874,
      "полити": 3875,
      "вен": 3876,
      "конференции": 3877,
      "процес": 3878,
      "бя": 3879,
      "ите": 3880,
      "отно": 3881,
      "развити": 3882,
      "аф": 3883,
      "ющ": 3884,
      "вно": 3885,
      "мир": 3886,
      "нии": 3887,
      "кая": 3888,
      "ас": 3889,
      "ительно": 3890,
      "вто": 3891,
      "ением": 3892,
      "генераль": 3893,
      "прот": 3894,
      "всем": 3895,
      "самбле": 3896,
      "ассамбле": 3897,
      "ом": 3898,
      "зд": 3899,
      "смот": 3900,
      "реги": 3901,
      "чего": 3902,
      "однако": 3903,
      "усилия": 3904,
      "действи": 3905,
      "чно": 3906,
      "уча": 3907,
      "образ": 3908,
      "вос": 3909,
      "эта": 3910,
      "перего": 3911,
      "говор": 3912,
      "вам": 3913,
      "моло": 3914,
      "время": 3915,
      "дь": 3916,
      "хотел": 3917,
      "гру": 3918,
      "заявл": 3919,
      "предоста": 3920,
      "поль": 3921,
      "нее": 3922,
      "резо": 3923,
      "перегово": 3924,
      "резолю": 3925,
      "крет": 3926,
      "поддерж": 3927,
      "обеспе": 3928,
      "него": 3929,
      "представит": 3930,
      "наде": 3931,
      "кри": 3932,
      "чь": 3933,
      "проек": 3934,
      "лет": 3935,
      "други": 3936,
      "_": 3937,
      "،": 3938,
      "؛": 3939,
      "؟": 3940,
      "ء": 3941,
      "آ": 3942,
      "أ": 3943,
      "ؤ": 3944,
      "إ": 3945,
      "ئ": 3946,
      "ا": 3947,
      "ب": 3948,
      "ة": 3949,
      "ت": 3950,
      "ث": 3951,
      "ج": 3952,
      "ح": 3953,
      "خ": 3954,
      "د": 3955,
      "ذ": 3956,
      "ر": 3957,
      "ز": 3958,
      "س": 3959,
      "ش": 3960,
      "ص": 3961,
      "ض": 3962,
      "ط": 3963,
      "ظ": 3964,
      "ع": 3965,
      "غ": 3966,
      "ـ": 3967,
      "ف": 3968,
      "ق": 3969,
      "ك": 3970,
      "ل": 3971,
      "م": 3972,
      "ن": 3973,
      "ه": 3974,
      "و": 3975,
      "ى": 3976,
      "ي": 3977,
      "ً": 3978,
      "ٌ": 3979,
      "ٍ": 3980,
      "َ": 3981,
      "ُ": 3982,
      "ِ": 3983,
      "ّ": 3984,
      "ْ": 3985,
      "ٰ": 3986,
      "چ": 3987,
      "ڨ": 3988,
      "ک": 3989,
      "ھ": 3990,
      "ی": 3991,
      "ۖ": 3992,
      "ۗ": 3993,
      "ۘ": 3994,
      "ۚ": 3995,
      "ۛ": 3996,
      "—": 3997,
      "☭": 3998,
      "ﺃ": 3999,
      "ﻻ": 4000,
      "ال": 4001,
      "َا": 4002,
      "وَ": 4003,
      "َّ": 4004,
      "ِي": 4005,
      "أَ": 4006,
      "لَ": 4007,
      "نَ": 4008,
      "الْ": 4009,
      "هُ": 4010,
      "ُو": 4011,
      "ما": 4012,
      "نْ": 4013,
      "من": 4014,
      "عَ": 4015,
      "نا": 4016,
      "لا": 4017,
      "مَ": 4018,
      "تَ": 4019,
      "فَ": 4020,
      "أن": 4021,
      "لي": 4022,
      "مِ": 4023,
      "ان": 4024,
      "في": 4025,
      "رَ": 4026,
      "يَ": 4027,
      "هِ": 4028,
      "مْ": 4029,
      "قَ": 4030,
      "بِ": 4031,
      "لى": 4032,
      "ين": 4033,
      "إِ": 4034,
      "لِ": 4035,
      "وا": 4036,
      "كَ": 4037,
      "ها": 4038,
      "ًا": 4039,
      "مُ": 4040,
      "ون": 4041,
      "الم": 4042,
      "بَ": 4043,
      "يا": 4044,
      "ذا": 4045,
      "سا": 4046,
      "الل": 4047,
      "مي": 4048,
      "يْ": 4049,
      "را": 4050,
      "ري": 4051,
      "لك": 4052,
      "مَا": 4053,
      "نَّ": 4054,
      "لم": 4055,
      "إن": 4056,
      "ست": 4057,
      "وم": 4058,
      "َّا": 4059,
      "لَا": 4060,
      "هم": 4061,
      "ِّ": 4062,
      "كُ": 4063,
      "كان": 4064,
      "سَ": 4065,
      "با": 4066,
      "دي": 4067,
      "حَ": 4068,
      "عْ": 4069,
      "بي": 4070,
      "الأ": 4071,
      "ول": 4072,
      "فِي": 4073,
      "رِ": 4074,
      "دا": 4075,
      "مِنْ": 4076,
      "ُونَ": 4077,
      "وْ": 4078,
      "هَا": 4079,
      "ُّ": 4080,
      "الس": 4081,
      "الَ": 4082,
      "ني": 4083,
      "لْ": 4084,
      "تُ": 4085,
      "هل": 4086,
      "رة": 4087,
      "دَ": 4088,
      "سْ": 4089,
      "تِ": 4090,
      "نَا": 4091,
      "رْ": 4092,
      "اللَّ": 4093,
      "سامي": 4094,
      "كن": 4095,
      "كل": 4096,
      "هَ": 4097,
      "عَلَ": 4098,
      "على": 4099,
      "مع": 4100,
      "إلى": 4101,
      "قد": 4102,
      "الر": 4103,
      "ُوا": 4104,
      "ير": 4105,
      "عن": 4106,
      "يُ": 4107,
      "نِ": 4108,
      "بْ": 4109,
      "الح": 4110,
      "هُمْ": 4111,
      "قا": 4112,
      "ذه": 4113,
      "الت": 4114,
      "ِينَ": 4115,
      "جَ": 4116,
      "هذا": 4117,
      "عد": 4118,
      "الع": 4119,
      "دْ": 4120,
      "قَالَ": 4121,
      "رُ": 4122,
      "يم": 4123,
      "ية": 4124,
      "نُ": 4125,
      "خَ": 4126,
      "رب": 4127,
      "الك": 4128,
      "وَا": 4129,
      "أنا": 4130,
      "ةِ": 4131,
      "الن": 4132,
      "حد": 4133,
      "عِ": 4134,
      "تا": 4135,
      "هو": 4136,
      "فا": 4137,
      "عا": 4138,
      "الش": 4139,
      "لُ": 4140,
      "يت": 4141,
      "ذَا": 4142,
      "يع": 4143,
      "الذ": 4144,
      "حْ": 4145,
      "الص": 4146,
      "إِنَّ": 4147,
      "جا": 4148,
      "علي": 4149,
      "كَا": 4150,
      "بُ": 4151,
      "تع": 4152,
      "وق": 4153,
      "مل": 4154,
      "لَّ": 4155,
      "يد": 4156,
      "أخ": 4157,
      "رف": 4158,
      "تي": 4159,
      "الِ": 4160,
      "ّا": 4161,
      "ذلك": 4162,
      "أَنْ": 4163,
      "سِ": 4164,
      "توم": 4165,
      "مر": 4166,
      "مَنْ": 4167,
      "بل": 4168,
      "الق": 4169,
      "الله": 4170,
      "ِيَ": 4171,
      "كم": 4172,
      "ذَ": 4173,
      "عل": 4174,
      "حب": 4175,
      "سي": 4176,
      "عُ": 4177,
      "الج": 4178,
      "الد": 4179,
      "شَ": 4180,
      "تك": 4181,
      "فْ": 4182,
      "صَ": 4183,
      "لل": 4184,
      "دِ": 4185,
      "بر": 4186,
      "فِ": 4187,
      "ته": 4188,
      "أع": 4189,
      "تْ": 4190,
      "قْ": 4191,
      "الْأَ": 4192,
      "ئِ": 4193,
      "عَنْ": 4194,
      "ور": 4195,
      "حا": 4196,
      "الَّ": 4197,
      "مت": 4198,
      "فر": 4199,
      "دُ": 4200,
      "هنا": 4201,
      "وَأَ": 4202,
      "تب": 4203,
      "ةُ": 4204,
      "أي": 4205,
      "سب": 4206,
      "ريد": 4207,
      "وج": 4208,
      "كُمْ": 4209,
      "حِ": 4210,
      "كْ": 4211,
      "در": 4212,
      "َاء": 4213,
      "هذه": 4214,
      "الط": 4215,
      "الْمُ": 4216,
      "دة": 4217,
      "قل": 4218,
      "غَ": 4219,
      "يوم": 4220,
      "الَّذ": 4221,
      "كر": 4222,
      "تر": 4223,
      "كِ": 4224,
      "كي": 4225,
      "عَلَى": 4226,
      "رَب": 4227,
      "عة": 4228,
      "قُ": 4229,
      "جْ": 4230,
      "فض": 4231,
      "لة": 4232,
      "هْ": 4233,
      "رَا": 4234,
      "وَلَ": 4235,
      "الْمَ": 4236,
      "أَنَّ": 4237,
      "يَا": 4238,
      "أُ": 4239,
      "شي": 4240,
      "اللَّهُ": 4241,
      "لَى": 4242,
      "قِ": 4243,
      "أت": 4244,
      "عَلَيْ": 4245,
      "اللَّهِ": 4246,
      "الب": 4247,
      "ضَ": 4248,
      "ةً": 4249,
      "قي": 4250,
      "ار": 4251,
      "بد": 4252,
      "خْ": 4253,
      "سْتَ": 4254,
      "طَ": 4255,
      "قَدْ": 4256,
      "ذهب": 4257,
      "أم": 4258,
      "ماذا": 4259,
      "وَإِ": 4260,
      "ةٌ": 4261,
      "ونَ": 4262,
      "ليلى": 4263,
      "ولا": 4264,
      "حُ": 4265,
      "هي": 4266,
      "صل": 4267,
      "الخ": 4268,
      "ود": 4269,
      "ليس": 4270,
      "لدي": 4271,
      "قال": 4272,
      "كَانَ": 4273,
      "مَّ": 4274,
      "حي": 4275,
      "تم": 4276,
      "لن": 4277,
      "وَلَا": 4278,
      "بع": 4279,
      "يمكن": 4280,
      "سُ": 4281,
      "ةَ": 4282,
      "حت": 4283,
      "رًا": 4284,
      "كا": 4285,
      "شا": 4286,
      "هِمْ": 4287,
      "لَهُ": 4288,
      "زَ": 4289,
      "داً": 4290,
      "مس": 4291,
      "كث": 4292,
      "الْعَ": 4293,
      "جِ": 4294,
      "صْ": 4295,
      "فَا": 4296,
      "له": 4297,
      "وي": 4298,
      "عَا": 4299,
      "هُوَ": 4300,
      "بِي": 4301,
      "بَا": 4302,
      "أس": 4303,
      "ثَ": 4304,
      "لِي": 4305,
      "رض": 4306,
      "الرَّ": 4307,
      "لِكَ": 4308,
      "تَّ": 4309,
      "فُ": 4310,
      "قة": 4311,
      "فعل": 4312,
      "مِن": 4313,
      "الآ": 4314,
      "ثُ": 4315,
      "سم": 4316,
      "مَّا": 4317,
      "بِهِ": 4318,
      "تق": 4319,
      "خر": 4320,
      "لقد": 4321,
      "خل": 4322,
      "شر": 4323,
      "أنت": 4324,
      "لَّا": 4325,
      "سن": 4326,
      "السَّ": 4327,
      "الذي": 4328,
      "سَا": 4329,
      "وما": 4330,
      "زل": 4331,
      "وب": 4332,
      "أْ": 4333,
      "إذا": 4334,
      "رِي": 4335,
      "حة": 4336,
      "نِي": 4337,
      "الْحَ": 4338,
      "وَقَالَ": 4339,
      "به": 4340,
      "ةٍ": 4341,
      "سأ": 4342,
      "رٌ": 4343,
      "بال": 4344,
      "مة": 4345,
      "شْ": 4346,
      "وت": 4347,
      "عند": 4348,
      "فس": 4349,
      "بَعْ": 4350,
      "هر": 4351,
      "قط": 4352,
      "أح": 4353,
      "إنه": 4354,
      "وع": 4355,
      "فت": 4356,
      "غا": 4357,
      "هناك": 4358,
      "بت": 4359,
      "مِنَ": 4360,
      "سر": 4361,
      "ذَلِكَ": 4362,
      "رس": 4363,
      "حدث": 4364,
      "غْ": 4365,
      "ِّي": 4366,
      "الإ": 4367,
      "وَيَ": 4368,
      "جل": 4369,
      "است": 4370,
      "قِي": 4371,
      "عب": 4372,
      "وس": 4373,
      "يش": 4374,
      "الَّذِينَ": 4375,
      "تاب": 4376,
      "دِي": 4377,
      "جب": 4378,
      "كون": 4379,
      "بن": 4380,
      "الث": 4381,
      "لَيْ": 4382,
      "بعد": 4383,
      "وَالْ": 4384,
      "فَأَ": 4385,
      "عم": 4386,
      "هُم": 4387,
      "تن": 4388,
      "ذْ": 4389,
      "أص": 4390,
      "أين": 4391,
      "رَبِّ": 4392,
      "الذين": 4393,
      "إِن": 4394,
      "بين": 4395,
      "جُ": 4396,
      "عَلَيْهِ": 4397,
      "حَا": 4398,
      "لو": 4399,
      "ستط": 4400,
      "ظر": 4401,
      "لَمْ": 4402,
      "ءِ": 4403,
      "كُل": 4404,
      "طل": 4405,
      "تَا": 4406,
      "ضُ": 4407,
      "كنت": 4408,
      "لًا": 4409,
      "مٌ": 4410,
      "قبل": 4411,
      "ــ": 4412,
      "ذِ": 4413,
      "قَوْ": 4414,
      "صِ": 4415,
      "مًا": 4416,
      "كانت": 4417,
      "صا": 4418,
      "يق": 4419,
      "الف": 4420,
      "النا": 4421,
      "مٍ": 4422,
      "إِنْ": 4423,
      "النَّ": 4424,
      "جد": 4425,
      "وَمَا": 4426,
      "تت": 4427,
      "بح": 4428,
      "مكان": 4429,
      "كيف": 4430,
      "ّة": 4431,
      "الا": 4432,
      "جَا": 4433,
      "أو": 4434,
      "ساعد": 4435,
      "ضِ": 4436,
      "إلا": 4437,
      "راً": 4438,
      "قَا": 4439,
      "رأ": 4440,
      "عت": 4441,
      "أحد": 4442,
      "هد": 4443,
      "ضا": 4444,
      "طر": 4445,
      "أق": 4446,
      "ماء": 4447,
      "دَّ": 4448,
      "البا": 4449,
      "مُو": 4450,
      "أَوْ": 4451,
      "طا": 4452,
      "قُو": 4453,
      "خِ": 4454,
      "تل": 4455,
      "ستطيع": 4456,
      "دَا": 4457,
      "النَّا": 4458,
      "إلَى": 4459,
      "وَتَ": 4460,
      "هَذَا": 4461,
      "بة": 4462,
      "عليك": 4463,
      "جر": 4464,
      "المن": 4465,
      "زا": 4466,
      "رٍ": 4467,
      "دع": 4468,
      "ًّا": 4469,
      "سة": 4470,
      "ثُمَّ": 4471,
      "شيء": 4472,
      "الغ": 4473,
      "تح": 4474,
      "رُونَ": 4475,
      "اليوم": 4476,
      "مِي": 4477,
      "نُوا": 4478,
      "أر": 4479,
      "تُمْ": 4480,
      "عر": 4481,
      "يف": 4482,
      "أب": 4483,
      "دًا": 4484,
      "صَا": 4485,
      "التَّ": 4486,
      "أريد": 4487,
      "الز": 4488,
      "يَوْ": 4489,
      "إلي": 4490,
      "جي": 4491,
      "يَعْ": 4492,
      "فضل": 4493,
      "الإن": 4494,
      "أنه": 4495,
      "1": 4496,
      "2": 4497,
      "3": 4498,
      "4": 4499,
      "5": 4500,
      "·": 4501,
      "×": 4502,
      "̃": 4503,
      "̌": 4504,
      "ε": 4505,
      "λ": 4506,
      "μ": 4507,
      "•": 4508,
      "‧": 4509,
      "─": 4510,
      "□": 4511,
      "、": 4512,
      "。": 4513,
      "〈": 4514,
      "〉": 4515,
      "《": 4516,
      "》": 4517,
      "「": 4518,
      "」": 4519,
      "『": 4520,
      "』": 4521,
      "ア": 4522,
      "オ": 4523,
      "カ": 4524,
      "チ": 4525,
      "ド": 4526,
      "ベ": 4527,
      "ャ": 4528,
      "ヤ": 4529,
      "ン": 4530,
      "・": 4531,
      "ー": 4532,
      "ㄟ": 4533,
      "！": 4534,
      "（": 4535,
      "）": 4536,
      "，": 4537,
      "－": 4538,
      "／": 4539,
      "：": 4540,
      "；": 4541,
      "？": 4542,
      "ｐ": 4543,
      "i4": 4544,
      "zh": 4545,
      "i2": 4546,
      "ng1": 4547,
      "u4": 4548,
      "i1": 4549,
      "ng2": 4550,
      "u3": 4551,
      "de5": 4552,
      "e4": 4553,
      "i3": 4554,
      "ng4": 4555,
      "an4": 4556,
      "shi4": 4557,
      "an2": 4558,
      "u2": 4559,
      "u1": 4560,
      "ng3": 4561,
      "a1": 4562,
      "an1": 4563,
      "e2": 4564,
      "a4": 4565,
      "ei4": 4566,
      "ong1": 4567,
      "ai4": 4568,
      "ao4": 4569,
      "ang1": 4570,
      "an3": 4571,
      "wei4": 4572,
      "uo2": 4573,
      "n1": 4574,
      "en2": 4575,
      "ao3": 4576,
      "e1": 4577,
      "qi": 4578,
      "eng2": 4579,
      "zho": 4580,
      "ang3": 4581,
      "ang4": 4582,
      "ang2": 4583,
      "uo4": 4584,
      "ge4": 4585,
      "yi1": 4586,
      "guo2": 4587,
      "a3": 4588,
      "he2": 4589,
      "e3": 4590,
      "yi2": 4591,
      "di4": 4592,
      "zhong1": 4593,
      "bu4": 4594,
      "ai2": 4595,
      "n2": 4596,
      "zai4": 4597,
      "shi2": 4598,
      "eng1": 4599,
      "ren2": 4600,
      "ong2": 4601,
      "xian4": 4602,
      "xu": 4603,
      "n4": 4604,
      "li4": 4605,
      "en4": 4606,
      "yu2": 4607,
      "ei2": 4608,
      "yi2ge4": 4609,
      "ou4": 4610,
      "ei3": 4611,
      "ui4": 4612,
      "a2": 4613,
      "you3": 4614,
      "ao1": 4615,
      "da4": 4616,
      "cheng2": 4617,
      "en1": 4618,
      "eng4": 4619,
      "yi4": 4620,
      "si1": 4621,
      "zhi4": 4622,
      "jia1": 4623,
      "yuan2": 4624,
      "ta1": 4625,
      "de5yi2ge4": 4626,
      "ke1": 4627,
      "shu3": 4628,
      "xi1": 4629,
      "ji2": 4630,
      "ao2": 4631,
      "ou3": 4632,
      "ong4": 4633,
      "xia4": 4634,
      "ai1": 4635,
      "gong1": 4636,
      "zhi1": 4637,
      "en3": 4638,
      "wei2": 4639,
      "xue2": 4640,
      "qu1": 4641,
      "zhou1": 4642,
      "er3": 4643,
      "ming2": 4644,
      "zhong3": 4645,
      "li3": 4646,
      "wu4": 4647,
      "yi3": 4648,
      "uo1": 4649,
      "e5": 4650,
      "ji4": 4651,
      "xing2": 4652,
      "jian4": 4653,
      "hua4": 4654,
      "yu3": 4655,
      "uo3": 4656,
      "ji1": 4657,
      "ai3": 4658,
      "zuo4": 4659,
      "hou4": 4660,
      "hui4": 4661,
      "ei1": 4662,
      "nian2": 4663,
      "qi2": 4664,
      "dao4": 4665,
      "sheng1": 4666,
      "de2": 4667,
      "dai4": 4668,
      "uan2": 4669,
      "zhe4": 4670,
      "zheng4": 4671,
      "ben3": 4672,
      "shang4": 4673,
      "zhu3": 4674,
      "bei4": 4675,
      "ye4": 4676,
      "chu1": 4677,
      "zhan4": 4678,
      "le5": 4679,
      "lai2": 4680,
      "shi3": 4681,
      "nan2": 4682,
      "ren4": 4683,
      "you2": 4684,
      "ke4": 4685,
      "ba1": 4686,
      "fu4": 4687,
      "dui4": 4688,
      "ya4": 4689,
      "mei3": 4690,
      "zi4": 4691,
      "xin1": 4692,
      "jing1": 4693,
      "zhu": 4694,
      "n3": 4695,
      "yong4": 4696,
      "mu4": 4697,
      "jiao4": 4698,
      "ye3": 4699,
      "jin4": 4700,
      "bian4": 4701,
      "lu4": 4702,
      "qi1": 4703,
      "she4": 4704,
      "xiang1": 4705,
      "ong3": 4706,
      "shu4": 4707,
      "dong4": 4708,
      "suo3": 4709,
      "guan1": 4710,
      "san1": 4711,
      "te4": 4712,
      "duo1": 4713,
      "fu2": 4714,
      "min2": 4715,
      "la1": 4716,
      "zhi2": 4717,
      "zhen4": 4718,
      "ou1": 4719,
      "wu3": 4720,
      "ma3": 4721,
      "i5": 4722,
      "zi5": 4723,
      "ju4": 4724,
      "er4": 4725,
      "yao4": 4726,
      "xia4de5yi2ge4": 4727,
      "si4": 4728,
      "tu2": 4729,
      "shan1": 4730,
      "zui4": 4731,
      "yin1": 4732,
      "er2": 4733,
      "tong2": 4734,
      "dong1": 4735,
      "yu4": 4736,
      "yan2": 4737,
      "qian2": 4738,
      "shu3xia4de5yi2ge4": 4739,
      "jun1": 4740,
      "ke3": 4741,
      "wen2": 4742,
      "fa3": 4743,
      "luo2": 4744,
      "zhu4": 4745,
      "xi4": 4746,
      "kou3": 4747,
      "bei3": 4748,
      "jian1": 4749,
      "fa1": 4750,
      "dian4": 4751,
      "jiang1": 4752,
      "wei4yu2": 4753,
      "xiang4": 4754,
      "zhi3": 4755,
      "eng3": 4756,
      "fang1": 4757,
      "lan2": 4758,
      "shu": 4759,
      "ri4": 4760,
      "lian2": 4761,
      "shou3": 4762,
      "qiu2": 4763,
      "jin1": 4764,
      "huo4": 4765,
      "shu3xia4de5yi2ge4zhong3": 4766,
      "fen1": 4767,
      "nei4": 4768,
      "gai1": 4769,
      "mei3guo2": 4770,
      "un2": 4771,
      "ge2": 4772,
      "bao3": 4773,
      "qing1": 4774,
      "gao1": 4775,
      "tai2": 4776,
      "xiao3": 4777,
      "jie2": 4778,
      "tian1": 4779,
      "chang2": 4780,
      "quan2": 4781,
      "lie4": 4782,
      "hai3": 4783,
      "fei1": 4784,
      "ti3": 4785,
      "jue2": 4786,
      "ou2": 4787,
      "ci3": 4788,
      "zu2": 4789,
      "ni2": 4790,
      "biao3": 4791,
      "zhong1guo2": 4792,
      "du4": 4793,
      "yue4": 4794,
      "xing4": 4795,
      "sheng4": 4796,
      "che1": 4797,
      "dan1": 4798,
      "jie1": 4799,
      "lin2": 4800,
      "ping2": 4801,
      "fu3": 4802,
      "gu3": 4803,
      "jie4": 4804,
      "v3": 4805,
      "sheng3": 4806,
      "na4": 4807,
      "yuan4": 4808,
      "zhang3": 4809,
      "guan3": 4810,
      "dao3": 4811,
      "zu3": 4812,
      "ding4": 4813,
      "dian3": 4814,
      "ceng2": 4815,
      "ren2kou3": 4816,
      "tai4": 4817,
      "tong1": 4818,
      "guo4": 4819,
      "neng2": 4820,
      "chang3": 4821,
      "hua2": 4822,
      "liu2": 4823,
      "ying1": 4824,
      "xiao4": 4825,
      "ci4": 4826,
      "bian4hua4": 4827,
      "liang3": 4828,
      "gong4": 4829,
      "zhong4": 4830,
      "de5yi1": 4831,
      "se4": 4832,
      "kai1": 4833,
      "wang2": 4834,
      "jiu4": 4835,
      "shi1": 4836,
      "shou4": 4837,
      "mei2": 4838,
      "feng1": 4839,
      "ze2": 4840,
      "tu2shi4": 4841,
      "ti2": 4842,
      "qi4": 4843,
      "jiu3": 4844,
      "shen1": 4845,
      "zhe3": 4846,
      "ren2kou3bian4hua4": 4847,
      "ren2kou3bian4hua4tu2shi4": 4848,
      "di4qu1": 4849,
      "yang2": 4850,
      "men5": 4851,
      "long2": 4852,
      "bing4": 4853,
      "chan3": 4854,
      "zhu1": 4855,
      "wei3": 4856,
      "wai4": 4857,
      "xing1": 4858,
      "bo1": 4859,
      "bi3": 4860,
      "tang2": 4861,
      "hua1": 4862,
      "bo2": 4863,
      "shui3": 4864,
      "shu1": 4865,
      "dou1": 4866,
      "sai4": 4867,
      "chao2": 4868,
      "bi4": 4869,
      "ling2": 4870,
      "lei4": 4871,
      "da4xue2": 4872,
      "fen4": 4873,
      "shu3de5": 4874,
      "mu3": 4875,
      "jiao1": 4876,
      "dang1": 4877,
      "cheng1": 4878,
      "tong3": 4879,
      "nv3": 4880,
      "qi3": 4881,
      "yan3": 4882,
      "mian4": 4883,
      "luo4": 4884,
      "jing4": 4885,
      "ge1": 4886,
      "ru4": 4887,
      "dan4": 4888,
      "ri4ben3": 4889,
      "pu3": 4890,
      "yun4": 4891,
      "huang2": 4892,
      "wo3": 4893,
      "lv": 4894,
      "hai2": 4895,
      "shi4yi1": 4896,
      "xie1": 4897,
      "ying3": 4898,
      "wu2": 4899,
      "shen2": 4900,
      "wang3": 4901,
      "guang3": 4902,
      "liu4": 4903,
      "su4": 4904,
      "shi4zhen4": 4905,
      "can1": 4906,
      "cao3": 4907,
      "xia2": 4908,
      "ka3": 4909,
      "da2": 4910,
      "hu4": 4911,
      "ban4": 4912,
      "dang3": 4913,
      "hu2": 4914,
      "zong3": 4915,
      "deng3": 4916,
      "de5yi2ge4shi4zhen4": 4917,
      "chuan2": 4918,
      "mo4": 4919,
      "zhang1": 4920,
      "ban1": 4921,
      "mo2": 4922,
      "cha2": 4923,
      "ce4": 4924,
      "zhu3yao4": 4925,
      "tou2": 4926,
      "ju2": 4927,
      "shi4wei4yu2": 4928,
      "sa4": 4929,
      "un1": 4930,
      "ke3yi3": 4931,
      "du1": 4932,
      "han4": 4933,
      "liang4": 4934,
      "sha1": 4935,
      "jia3": 4936,
      "zi1": 4937,
      "lv4": 4938,
      "fu1": 4939,
      "xian1": 4940,
      "xu4": 4941,
      "guang1": 4942,
      "meng2": 4943,
      "bao4": 4944,
      "you4": 4945,
      "rong2": 4946,
      "zhi1yi1": 4947,
      "wei1": 4948,
      "mao2": 4949,
      "guo2jia1": 4950,
      "cong2": 4951,
      "gou4": 4952,
      "tie3": 4953,
      "zhen1": 4954,
      "du2": 4955,
      "bian1": 4956,
      "ci2": 4957,
      "qu3": 4958,
      "fan4": 4959,
      "xiang3": 4960,
      "men2": 4961,
      "ju1": 4962,
      "hong2": 4963,
      "zi3": 4964,
      "ta1men5": 4965,
      "ji3": 4966,
      "zong1": 4967,
      "zhou1de5yi2ge4shi4zhen4": 4968,
      "tuan2": 4969,
      "jing3": 4970,
      "gong1si1": 4971,
      "xie4": 4972,
      "li2": 4973,
      "li4shi3": 4974,
      "bao1": 4975,
      "gang3": 4976,
      "gui1": 4977,
      "zheng1": 4978,
      "zhi2wu4": 4979,
      "ta1de5": 4980,
      "pin3": 4981,
      "zhuan1": 4982,
      "chong2": 4983,
      "shi3yong4": 4984,
      "wa3": 4985,
      "shuo1": 4986,
      "chuan1": 4987,
      "lei2": 4988,
      "wan1": 4989,
      "huo2": 4990,
      "su1": 4991,
      "zao3": 4992,
      "gai3": 4993,
      "qu4": 4994,
      "gu4": 4995,
      "xi2": 4996,
      "hang2": 4997,
      "ying4": 4998,
      "cun1": 4999,
      "gen1": 5000,
      "ying2": 5001,
      "ting2": 5002,
      "cheng2shi4": 5003,
      "jiang3": 5004,
      "ling3": 5005,
      "lun2": 5006,
      "bu4fen4": 5007,
      "deng1": 5008,
      "xuan3": 5009,
      "dong4wu4": 5010,
      "de2guo2": 5011,
      "xian3": 5012,
      "fan3": 5013,
      "zhe5": 5014,
      "han2": 5015,
      "hao4": 5016,
      "mi4": 5017,
      "ran2": 5018,
      "qin1": 5019,
      "tiao2": 5020,
      "zhan3": 5021,
      "[ar]": 5022,
      "[zh-cn]": 5023,
      "¡": 5024,
      "é": 5025,
      "shi": 5026,
      "tsu": 5027,
      "teki": 5028,
      "nai": 5029,
      "aru": 5030,
      "uu": 5031,
      "kai": 5032,
      "shite": 5033,
      "mono": 5034,
      "koto": 5035,
      "kara": 5036,
      "shita": 5037,
      "suru": 5038,
      "masu": 5039,
      "tai": 5040,
      "ware": 5041,
      "shin": 5042,
      "oku": 5043,
      "yuu": 5044,
      "iru": 5045,
      "jiko": 5046,
      "desu": 5047,
      "rare": 5048,
      "shou": 5049,
      "sha": 5050,
      "sekai": 5051,
      "kyou": 5052,
      "mashita": 5053,
      "nara": 5054,
      "kei": 5055,
      "ita": 5056,
      "ari": 5057,
      "itsu": 5058,
      "kono": 5059,
      "naka": 5060,
      "chou": 5061,
      "sore": 5062,
      "naru": 5063,
      "gaku": 5064,
      "reba": 5065,
      "hito": 5066,
      "sai": 5067,
      "nan": 5068,
      "dai": 5069,
      "tsuku": 5070,
      "shiki": 5071,
      "sare": 5072,
      "naku": 5073,
      "jun": 5074,
      "kaku": 5075,
      "zai": 5076,
      "wata": 5077,
      "shuu": 5078,
      "ii": 5079,
      "kare": 5080,
      "shii": 5081,
      "made": 5082,
      "sho": 5083,
      "kereba": 5084,
      "shika": 5085,
      "ichi": 5086,
      "deki": 5087,
      "nin": 5088,
      "wareware": 5089,
      "nakereba": 5090,
      "oite": 5091,
      "yaku": 5092,
      "mujun": 5093,
      "yoku": 5094,
      "butsu": 5095,
      "omo": 5096,
      "gae": 5097,
      "naranai": 5098,
      "tachi": 5099,
      "chuu": 5100,
      "kangae": 5101,
      "toki": 5102,
      "koro": 5103,
      "mujunteki": 5104,
      "naga": 5105,
      "jin": 5106,
      "shima": 5107,
      "iku": 5108,
      "imasu": 5109,
      "hon": 5110,
      "kae": 5111,
      "kore": 5112,
      "kita": 5113,
      "datta": 5114,
      "jitsu": 5115,
      "mae": 5116,
      "toku": 5117,
      "douitsu": 5118,
      "ritsu": 5119,
      "kyuu": 5120,
      "hyou": 5121,
      "rareta": 5122,
      "keisei": 5123,
      "kkan": 5124,
      "rareru": 5125,
      "mou": 5126,
      "doko": 5127,
      "ryou": 5128,
      "dake": 5129,
      "nakatta": 5130,
      "soko": 5131,
      "tabe": 5132,
      "hana": 5133,
      "fuku": 5134,
      "yasu": 5135,
      "wataku": 5136,
      "yama": 5137,
      "kyo": 5138,
      "genzai": 5139,
      "boku": 5140,
      "ata": 5141,
      "kawa": 5142,
      "masen": 5143,
      "juu": 5144,
      "natte": 5145,
      "watakushi": 5146,
      "yotte": 5147,
      "hai": 5148,
      "jishin": 5149,
      "rete": 5150,
      "oka": 5151,
      "kagaku": 5152,
      "natta": 5153,
      "karu": 5154,
      "nari": 5155,
      "mata": 5156,
      "kuru": 5157,
      "gai": 5158,
      "kari": 5159,
      "shakai": 5160,
      "koui": 5161,
      "yori": 5162,
      "setsu": 5163,
      "reru": 5164,
      "tokoro": 5165,
      "jutsu": 5166,
      "saku": 5167,
      "ttai": 5168,
      "ningen": 5169,
      "tame": 5170,
      "kankyou": 5171,
      "ooku": 5172,
      "watashi": 5173,
      "tsukuru": 5174,
      "sugi": 5175,
      "jibun": 5176,
      "shitsu": 5177,
      "keru": 5178,
      "kishi": 5179,
      "shikashi": 5180,
      "moto": 5181,
      "mari": 5182,
      "itte": 5183,
      "deshita": 5184,
      "nde": 5185,
      "arimasu": 5186,
      "koe": 5187,
      "zettai": 5188,
      "kkanteki": 5189,
      "rekishi": 5190,
      "dekiru": 5191,
      "tsuka": 5192,
      "itta": 5193,
      "kobutsu": 5194,
      "miru": 5195,
      "shoku": 5196,
      "shimasu": 5197,
      "gijutsu": 5198,
      "gyou": 5199,
      "joushiki": 5200,
      "atta": 5201,
      "hodo": 5202,
      "koko": 5203,
      "tsukurareta": 5204,
      "zoku": 5205,
      "hitei": 5206,
      "koku": 5207,
      "rekishiteki": 5208,
      "kete": 5209,
      "kako": 5210,
      "nagara": 5211,
      "kakaru": 5212,
      "shutai": 5213,
      "haji": 5214,
      "taku": 5215,
      "douitsuteki": 5216,
      "mete": 5217,
      "tsuu": 5218,
      "sarete": 5219,
      "genjitsu": 5220,
      "bai": 5221,
      "nawa": 5222,
      "jikan": 5223,
      "waru": 5224,
      "rt": 5225,
      "atsu": 5226,
      "soku": 5227,
      "kouiteki": 5228,
      "kata": 5229,
      "tetsu": 5230,
      "gawa": 5231,
      "kedo": 5232,
      "reta": 5233,
      "sayou": 5234,
      "tteru": 5235,
      "tori": 5236,
      "kimi": 5237,
      "mura": 5238,
      "sareru": 5239,
      "machi": 5240,
      "kya": 5241,
      "osa": 5242,
      "konna": 5243,
      "aku": 5244,
      "sareta": 5245,
      "ipp": 5246,
      "shiku": 5247,
      "uchi": 5248,
      "hitotsu": 5249,
      "hatara": 5250,
      "tachiba": 5251,
      "shiro": 5252,
      "katachi": 5253,
      "tomo": 5254,
      "ete": 5255,
      "meru": 5256,
      "nichi": 5257,
      "dare": 5258,
      "katta": 5259,
      "eru": 5260,
      "suki": 5261,
      "ooki": 5262,
      "maru": 5263,
      "moku": 5264,
      "oko": 5265,
      "kangaerareru": 5266,
      "oto": 5267,
      "tanni": 5268,
      "tada": 5269,
      "taiteki": 5270,
      "motte": 5271,
      "kinou": 5272,
      "shinai": 5273,
      "kki": 5274,
      "tari": 5275,
      "ranai": 5276,
      "kkou": 5277,
      "mirai": 5278,
      "ppon": 5279,
      "goto": 5280,
      "hitsu": 5281,
      "teru": 5282,
      "mochi": 5283,
      "katsu": 5284,
      "nyuu": 5285,
      "zuka": 5286,
      "tsuite": 5287,
      "nomi": 5288,
      "sugu": 5289,
      "kuda": 5290,
      "tetsugaku": 5291,
      "ika": 5292,
      "ronri": 5293,
      "oki": 5294,
      "nippon": 5295,
      "shimashita": 5296,
      "chishiki": 5297,
      "chokkanteki": 5298,
      "suko": 5299,
      "kuu": 5300,
      "arou": 5301,
      "katte": 5302,
      "kuri": 5303,
      "inai": 5304,
      "hyougen": 5305,
      "ishiki": 5306,
      "doku": 5307,
      "atte": 5308,
      "atara": 5309,
      "wari": 5310,
      "kao": 5311,
      "seisan": 5312,
      "hanashi": 5313,
      "kake": 5314,
      "naji": 5315,
      "sunawa": 5316,
      "sunawachi": 5317,
      "ugo": 5318,
      "suu": 5319,
      "bara": 5320,
      "hiro": 5321,
      "iwa": 5322,
      "betsu": 5323,
      "yoi": 5324,
      "seru": 5325,
      "shiteru": 5326,
      "rarete": 5327,
      "toshi": 5328,
      "seki": 5329,
      "tairitsu": 5330,
      "wakara": 5331,
      "tokyo": 5332,
      "kka": 5333,
      "kyoku": 5334,
      "iro": 5335,
      "mite": 5336,
      "saki": 5337,
      "kanji": 5338,
      "mita": 5339,
      "sube": 5340,
      "ryoku": 5341,
      "matta": 5342,
      "kudasai": 5343,
      "omoi": 5344,
      "wareru": 5345,
      "hitsuyou": 5346,
      "kashi": 5347,
      "renai": 5348,
      "kankei": 5349,
      "gatte": 5350,
      "ochi": 5351,
      "motsu": 5352,
      "sonzai": 5353,
      "taishite": 5354,
      "ame": 5355,
      "seimei": 5356,
      "kano": 5357,
      "giri": 5358,
      "kangaeru": 5359,
      "yue": 5360,
      "asa": 5361,
      "onaji": 5362,
      "yoru": 5363,
      "niku": 5364,
      "osaka": 5365,
      "sukoshi": 5366,
      "tama": 5367,
      "kanojo": 5368,
      "kite": 5369,
      "mondai": 5370,
      "amari": 5371,
      "eki": 5372,
      "kojin": 5373,
      "haya": 5374,
      "dete": 5375,
      "atarashii": 5376,
      "awa": 5377,
      "gakkou": 5378,
      "tsuzu": 5379,
      "shukan": 5380,
      "imashita": 5381,
      "atae": 5382,
      "darou": 5383,
      "hataraku": 5384,
      "gata": 5385,
      "dachi": 5386,
      "matsu": 5387,
      "arimasen": 5388,
      "seibutsu": 5389,
      "mitsu": 5390,
      "heya": 5391,
      "yasui": 5392,
      "deni": 5393,
      "noko": 5394,
      "haha": 5395,
      "domo": 5396,
      "kami": 5397,
      "sudeni": 5398,
      "nao": 5399,
      "raku": 5400,
      "ike": 5401,
      "meta": 5402,
      "kodomo": 5403,
      "soshite": 5404,
      "game": 5405,
      "bakari": 5406,
      "tote": 5407,
      "hatsu": 5408,
      "mise": 5409,
      "mokuteki": 5410,
      "dakara": 5411,
      "[ja]": 5412,
      "ő": 5413,
      "ű": 5414,
      "そ": 5415,
      "な": 5416,
      "ん": 5417,
      "포": 5418,
      "�": 5419,
      "gy": 5420,
      "eg": 5421,
      "cs": 5422,
      "ál": 5423,
      "egy": 5424,
      "át": 5425,
      "ott": 5426,
      "ett": 5427,
      "meg": 5428,
      "hogy": 5429,
      "ég": 5430,
      "ól": 5431,
      "nek": 5432,
      "volt": 5433,
      "ág": 5434,
      "nk": 5435,
      "ék": 5436,
      "ít": 5437,
      "ák": 5438,
      "ud": 5439,
      "szer": 5440,
      "mind": 5441,
      "oz": 5442,
      "ép": 5443,
      "ért": 5444,
      "mond": 5445,
      "szt": 5446,
      "nak": 5447,
      "ől": 5448,
      "csak": 5449,
      "oly": 5450,
      "áll": 5451,
      "ány": 5452,
      "mint": 5453,
      "már": 5454,
      "ött": 5455,
      "nagy": 5456,
      "ész": 5457,
      "azt": 5458,
      "elő": 5459,
      "tud": 5460,
      "ény": 5461,
      "áz": 5462,
      "még": 5463,
      "köz": 5464,
      "ely": 5465,
      "ség": 5466,
      "hoz": 5467,
      "uk": 5468,
      "kez": 5469,
      "ám": 5470,
      "aj": 5471,
      "unk": 5472,
      "vagy": 5473,
      "szem": 5474,
      "ember": 5475,
      "fog": 5476,
      "mert": 5477,
      "ös": 5478,
      "ság": 5479,
      "leg": 5480,
      "ünk": 5481,
      "hát": 5482,
      "ony": 5483,
      "ezt": 5484,
      "minden": 5485,
      "ült": 5486,
      "jó": 5487,
      "kis": 5488,
      "áj": 5489,
      "úgy": 5490,
      "most": 5491,
      "ír": 5492,
      "itt": 5493,
      "elt": 5494,
      "mondta": 5495,
      "kell": 5496,
      "ált": 5497,
      "érd": 5498,
      "tö": 5499,
      "vár": 5500,
      "lát": 5501,
      "ők": 5502,
      "vet": 5503,
      "után": 5504,
      "két": 5505,
      "nap": 5506,
      "ív": 5507,
      "ály": 5508,
      "vég": 5509,
      "ök": 5510,
      "dul": 5511,
      "néz": 5512,
      "ában": 5513,
      "kül": 5514,
      "akkor": 5515,
      "szél": 5516,
      "új": 5517,
      "olyan": 5518,
      "ked": 5519,
      "hely": 5520,
      "tör": 5521,
      "ból": 5522,
      "elm": 5523,
      "ára": 5524,
      "ló": 5525,
      "volna": 5526,
      "lehet": 5527,
      "ebb": 5528,
      "sok": 5529,
      "olt": 5530,
      "eket": 5531,
      "bor": 5532,
      "fej": 5533,
      "gond": 5534,
      "akar": 5535,
      "fél": 5536,
      "úl": 5537,
      "otta": 5538,
      "valami": 5539,
      "jel": 5540,
      "éd": 5541,
      "arc": 5542,
      "hall": 5543,
      "föl": 5544,
      "ába": 5545,
      "olg": 5546,
      "kir": 5547,
      "old": 5548,
      "kérd": 5549,
      "jár": 5550,
      "úr": 5551,
      "zs": 5552,
      "élet": 5553,
      "ját": 5554,
      "ov": 5555,
      "éz": 5556,
      "vil": 5557,
      "őr": 5558,
      "ög": 5559,
      "lesz": 5560,
      "koz": 5561,
      "ább": 5562,
      "király": 5563,
      "eng": 5564,
      "igaz": 5565,
      "haj": 5566,
      "kod": 5567,
      "ról": 5568,
      "több": 5569,
      "szó": 5570,
      "ében": 5571,
      "öt": 5572,
      "nyi": 5573,
      "szól": 5574,
      "gondol": 5575,
      "egész": 5576,
      "így": 5577,
      "ős": 5578,
      "obb": 5579,
      "osan": 5580,
      "ből": 5581,
      "abb": 5582,
      "őt": 5583,
      "nál": 5584,
      "kép": 5585,
      "aztán": 5586,
      "tart": 5587,
      "beszél": 5588,
      "előtt": 5589,
      "aszt": 5590,
      "maj": 5591,
      "kör": 5592,
      "hang": 5593,
      "íz": 5594,
      "incs": 5595,
      "év": 5596,
      "ód": 5597,
      "ók": 5598,
      "hozz": 5599,
      "okat": 5600,
      "nagyon": 5601,
      "ház": 5602,
      "ped": 5603,
      "ezte": 5604,
      "etlen": 5605,
      "neki": 5606,
      "majd": 5607,
      "szony": 5608,
      "ának": 5609,
      "felé": 5610,
      "egyszer": 5611,
      "adt": 5612,
      "gyer": 5613,
      "amikor": 5614,
      "foly": 5615,
      "szak": 5616,
      "őd": 5617,
      "hú": 5618,
      "ász": 5619,
      "amely": 5620,
      "ére": 5621,
      "ilyen": 5622,
      "oda": 5623,
      "ják": 5624,
      "tár": 5625,
      "ával": 5626,
      "lak": 5627,
      "gyan": 5628,
      "ély": 5629,
      "út": 5630,
      "kezd": 5631,
      "mell": 5632,
      "mikor": 5633,
      "hez": 5634,
      "való": 5635,
      "szeret": 5636,
      "rend": 5637,
      "vissza": 5638,
      "fő": 5639,
      "asszony": 5640,
      "ről": 5641,
      "pedig": 5642,
      "szép": 5643,
      "ták": 5644,
      "öv": 5645,
      "világ": 5646,
      "maga": 5647,
      "szik": 5648,
      "éj": 5649,
      "ént": 5650,
      "jött": 5651,
      "szí": 5652,
      "gat": 5653,
      "ettem": 5654,
      "hány": 5655,
      "ást": 5656,
      "ahol": 5657,
      "őket": 5658,
      "hár": 5659,
      "nő": 5660,
      "csi": 5661,
      "talál": 5662,
      "elte": 5663,
      "látt": 5664,
      "tört": 5665,
      "hagy": 5666,
      "esz": 5667,
      "nél": 5668,
      "kut": 5669,
      "lány": 5670,
      "amit": 5671,
      "ső": 5672,
      "ellen": 5673,
      "magát": 5674,
      "ugyan": 5675,
      "külön": 5676,
      "asz": 5677,
      "mindig": 5678,
      "lép": 5679,
      "talán": 5680,
      "szor": 5681,
      "illan": 5682,
      "nincs": 5683,
      "vagyok": 5684,
      "telen": 5685,
      "ismer": 5686,
      "isten": 5687,
      "ított": 5688,
      "jobb": 5689,
      "ves": 5690,
      "dult": 5691,
      "juk": 5692,
      "szen": 5693,
      "öm": 5694,
      "lett": 5695,
      "egyik": 5696,
      "bár": 5697,
      "szi": 5698,
      "szív": 5699,
      "azon": 5700,
      "eszt": 5701,
      "föld": 5702,
      "kuty": 5703,
      "pillan": 5704,
      "fér": 5705,
      "től": 5706,
      "tű": 5707,
      "ébe": 5708,
      "tött": 5709,
      "barát": 5710,
      "íg": 5711,
      "ahogy": 5712,
      "eh": 5713,
      "ep": 5714,
      "jelent": 5715,
      "tat": 5716,
      "szeg": 5717,
      "mintha": 5718,
      "egyen": 5719,
      "szab": 5720,
      "bizony": 5721,
      "jon": 5722,
      "öreg": 5723,
      "dolg": 5724,
      "csap": 5725,
      "tiszt": 5726,
      "állt": 5727,
      "ancs": 5728,
      "idő": 5729,
      "ügy": 5730,
      "miért": 5731,
      "ót": 5732,
      "csin": 5733,
      "ének": 5734,
      "vér": 5735,
      "jól": 5736,
      "alatt": 5737,
      "mely": 5738,
      "semmi": 5739,
      "nyug": 5740,
      "vág": 5741,
      "követ": 5742,
      "össze": 5743,
      "mad": 5744,
      "acs": 5745,
      "fiú": 5746,
      "másik": 5747,
      "jön": 5748,
      "szám": 5749,
      "rész": 5750,
      "kér": 5751,
      "ével": 5752,
      "[hu]": 5753,
      "%": 5754,
      "0": 5755,
      "6": 5756,
      "7": 5757,
      "8": 5758,
      "9": 5759,
      "A": 5760,
      "B": 5761,
      "C": 5762,
      "D": 5763,
      "E": 5764,
      "F": 5765,
      "G": 5766,
      "H": 5767,
      "I": 5768,
      "J": 5769,
      "K": 5770,
      "L": 5771,
      "M": 5772,
      "N": 5773,
      "O": 5774,
      "P": 5775,
      "Q": 5776,
      "R": 5777,
      "S": 5778,
      "T": 5779,
      "U": 5780,
      "V": 5781,
      "W": 5782,
      "X": 5783,
      "Y": 5784,
      "Z": 5785,
      "Ł": 5786,
      "α": 5787,
      "ς": 5788,
      "♥": 5789,
      "か": 5790,
      "ズ": 5791,
      "因": 5792,
      "国": 5793,
      "怎": 5794,
      "抱": 5795,
      "推": 5796,
      "有": 5797,
      "樣": 5798,
      "為": 5799,
      "群": 5800,
      "麼": 5801,
      "eo": 5802,
      "eul": 5803,
      "eun": 5804,
      "eon": 5805,
      "ae": 5806,
      "yeon": 5807,
      "yeo": 5808,
      "ui": 5809,
      "hae": 5810,
      "geo": 5811,
      "neun": 5812,
      "ssda": 5813,
      "seo": 5814,
      "eong": 5815,
      "kk": 5816,
      "jeo": 5817,
      "deul": 5818,
      "eum": 5819,
      "yeong": 5820,
      "geos": 5821,
      "hag": 5822,
      "aneun": 5823,
      "iss": 5824,
      "dae": 5825,
      "eob": 5826,
      "eol": 5827,
      "geu": 5828,
      "jeong": 5829,
      "sae": 5830,
      "doe": 5831,
      "geul": 5832,
      "eulo": 5833,
      "bn": 5834,
      "sang": 5835,
      "bnida": 5836,
      "haneun": 5837,
      "jeog": 5838,
      "saeng": 5839,
      "ineun": 5840,
      "anh": 5841,
      "salam": 5842,
      "eom": 5843,
      "nae": 5844,
      "gwa": 5845,
      "yeol": 5846,
      "eseo": 5847,
      "myeon": 5848,
      "ttae": 5849,
      "hw": 5850,
      "eobs": 5851,
      "jang": 5852,
      "gw": 5853,
      "ileul": 5854,
      "yeog": 5855,
      "jeon": 5856,
      "sig": 5857,
      "jag": 5858,
      "hago": 5859,
      "deun": 5860,
      "seong": 5861,
      "gag": 5862,
      "ham": 5863,
      "dang": 5864,
      "leul": 5865,
      "sil": 5866,
      "dong": 5867,
      "handa": 5868,
      "eossda": 5869,
      "aeg": 5870,
      "seon": 5871,
      "haessda": 5872,
      "issda": 5873,
      "ege": 5874,
      "mul": 5875,
      "jung": 5876,
      "jig": 5877,
      "issneun": 5878,
      "geun": 5879,
      "seubnida": 5880,
      "won": 5881,
      "daneun": 5882,
      "eoh": 5883,
      "deo": 5884,
      "gam": 5885,
      "jal": 5886,
      "haeng": 5887,
      "yang": 5888,
      "bang": 5889,
      "jae": 5890,
      "saenggag": 5891,
      "hage": 5892,
      "sog": 5893,
      "eoss": 5894,
      "jasin": 5895,
      "jil": 5896,
      "eog": 5897,
      "gyeong": 5898,
      "gong": 5899,
      "deon": 5900,
      "haess": 5901,
      "eung": 5902,
      "joh": 5903,
      "nal": 5904,
      "myeong": 5905,
      "eona": 5906,
      "igo": 5907,
      "gyeol": 5908,
      "yag": 5909,
      "gwan": 5910,
      "uli": 5911,
      "yong": 5912,
      "lyeo": 5913,
      "jog": 5914,
      "eohge": 5915,
      "bog": 5916,
      "tong": 5917,
      "manh": 5918,
      "jeol": 5919,
      "geol": 5920,
      "aga": 5921,
      "naneun": 5922,
      "uneun": 5923,
      "cheol": 5924,
      "dol": 5925,
      "bad": 5926,
      "hamyeon": 5927,
      "yeossda": 5928,
      "ibnida": 5929,
      "gye": 5930,
      "eos": 5931,
      "hwal": 5932,
      "salamdeul": 5933,
      "jiman": 5934,
      "dangsin": 5935,
      "jib": 5936,
      "ttaemun": 5937,
      "ib": 5938,
      "eneun": 5939,
      "eug": 5940,
      "jeom": 5941,
      "geuleon": 5942,
      "hwa": 5943,
      "assda": 5944,
      "beob": 5945,
      "bae": 5946,
      "yeoss": 5947,
      "chin": 5948,
      "chaeg": 5949,
      "geon": 5950,
      "naega": 5951,
      "iga": 5952,
      "sigan": 5953,
      "gil": 5954,
      "hyeon": 5955,
      "lyeog": 5956,
      "gug": 5957,
      "pyeon": 5958,
      "wae": 5959,
      "jul": 5960,
      "seul": 5961,
      "deung": 5962,
      "hajiman": 5963,
      "eumyeon": 5964,
      "pil": 5965,
      "nyeon": 5966,
      "tae": 5967,
      "pyo": 5968,
      "jineun": 5969,
      "beon": 5970,
      "hada": 5971,
      "seol": 5972,
      "sip": 5973,
      "daleun": 5974,
      "salm": 5975,
      "gyo": 5976,
      "cheon": 5977,
      "hagi": 5978,
      "cheoleom": 5979,
      "gal": 5980,
      "ila": 5981,
      "kkaji": 5982,
      "anhneun": 5983,
      "habnida": 5984,
      "tteon": 5985,
      "haeseo": 5986,
      "doenda": 5987,
      "ttal": 5988,
      "ilo": 5989,
      "seub": 5990,
      "byeon": 5991,
      "myeo": 5992,
      "beol": 5993,
      "jeung": 5994,
      "chim": 5995,
      "hwang": 5996,
      "euneun": 5997,
      "jong": 5998,
      "boda": 5999,
      "nol": 6000,
      "neom": 6001,
      "buteo": 6002,
      "jigeum": 6003,
      "eobsda": 6004,
      "daelo": 6005,
      "yul": 6006,
      "pyeong": 6007,
      "seoneun": 6008,
      "salang": 6009,
      "seut": 6010,
      "heom": 6011,
      "hyang": 6012,
      "gwang": 6013,
      "eobsneun": 6014,
      "hwag": 6015,
      "gess": 6016,
      "jagi": 6017,
      "ileon": 6018,
      "wihae": 6019,
      "daehan": 6020,
      "gaji": 6021,
      "meog": 6022,
      "jyeo": 6023,
      "chaj": 6024,
      "byeong": 6025,
      "eod": 6026,
      "gyeo": 6027,
      "eoji": 6028,
      "gul": 6029,
      "modeun": 6030,
      "insaeng": 6031,
      "geulae": 6032,
      "sasil": 6033,
      "sib": 6034,
      "chal": 6035,
      "ilago": 6036,
      "geum": 6037,
      "doeneun": 6038,
      "bol": 6039,
      "gajang": 6040,
      "geuligo": 6041,
      "hyeong": 6042,
      "haengbog": 6043,
      "chul": 6044,
      "chae": 6045,
      "mang": 6046,
      "dam": 6047,
      "choe": 6048,
      "sijag": 6049,
      "cheong": 6050,
      "ilaneun": 6051,
      "ulineun": 6052,
      "aen": 6053,
      "kke": 6054,
      "munje": 6055,
      "teu": 6056,
      "geuneun": 6057,
      "bge": 6058,
      "cheo": 6059,
      "baeg": 6060,
      "jug": 6061,
      "sangdae": 6062,
      "geugeos": 6063,
      "dog": 6064,
      "eus": 6065,
      "jab": 6066,
      "hyeo": 6067,
      "tteohge": 6068,
      "chil": 6069,
      "swi": 6070,
      "jileul": 6071,
      "chang": 6072,
      "ganeun": 6073,
      "iji": 6074,
      "dago": 6075,
      "yohan": 6076,
      "teug": 6077,
      "ppun": 6078,
      "aleul": 6079,
      "haengdong": 6080,
      "sesang": 6081,
      "edo": 6082,
      "mandeul": 6083,
      "amyeon": 6084,
      "kkae": 6085,
      "bag": 6086,
      "ideul": 6087,
      "pum": 6088,
      "meol": 6089,
      "neul": 6090,
      "hamkke": 6091,
      "chung": 6092,
      "dab": 6093,
      "yug": 6094,
      "sag": 6095,
      "gwangye": 6096,
      "ileohge": 6097,
      "balo": 6098,
      "neunde": 6099,
      "hamyeo": 6100,
      "geuleoh": 6101,
      "anila": 6102,
      "bangbeob": 6103,
      "dasi": 6104,
      "byeol": 6105,
      "gyeon": 6106,
      "gamjeong": 6107,
      "oneul": 6108,
      "janeun": 6109,
      "yeom": 6110,
      "lago": 6111,
      "igi": 6112,
      "hwan": 6113,
      "teul": 6114,
      "eoseo": 6115,
      "sik": 6116,
      "jaga": 6117,
      "geuleom": 6118,
      "geuleona": 6119,
      "jeongdo": 6120,
      "gyeog": 6121,
      "geuleohge": 6122,
      "geudeul": 6123,
      "eut": 6124,
      "imyeon": 6125,
      "jjae": 6126,
      "keun": 6127,
      "isang": 6128,
      "malhaessda": 6129,
      "euge": 6130,
      "nop": 6131,
      "ingan": 6132,
      "bomyeon": 6133,
      "taeg": 6134,
      "dwi": 6135,
      "saneun": 6136,
      "wan": 6137,
      "anhgo": 6138,
      "nugu": 6139,
      "sung": 6140,
      "damyeon": 6141,
      "adeul": 6142,
      "peul": 6143,
      "ttala": 6144,
      "geosdo": 6145,
      "aji": 6146,
      "meon": 6147,
      "eumyeo": 6148,
      "dolog": 6149,
      "neung": 6150,
      "modu": 6151,
      "[ko]": 6152,
      "\u0014": 6153,
      "\u0016": 6154,
      "$": 6155,
      "*": 6156,
      "|": 6157,
      "°": 6158,
      "º": 6159,
      "ँ": 6160,
      "ं": 6161,
      "ः": 6162,
      "अ": 6163,
      "आ": 6164,
      "इ": 6165,
      "ई": 6166,
      "उ": 6167,
      "ऊ": 6168,
      "ऋ": 6169,
      "ऎ": 6170,
      "ए": 6171,
      "ऐ": 6172,
      "ऑ": 6173,
      "ऒ": 6174,
      "ओ": 6175,
      "औ": 6176,
      "क": 6177,
      "ख": 6178,
      "ग": 6179,
      "घ": 6180,
      "ङ": 6181,
      "च": 6182,
      "छ": 6183,
      "ज": 6184,
      "झ": 6185,
      "ञ": 6186,
      "ट": 6187,
      "ठ": 6188,
      "ड": 6189,
      "ढ": 6190,
      "ण": 6191,
      "त": 6192,
      "थ": 6193,
      "द": 6194,
      "ध": 6195,
      "न": 6196,
      "ऩ": 6197,
      "प": 6198,
      "फ": 6199,
      "ब": 6200,
      "भ": 6201,
      "म": 6202,
      "य": 6203,
      "र": 6204,
      "ऱ": 6205,
      "ल": 6206,
      "ळ": 6207,
      "व": 6208,
      "श": 6209,
      "ष": 6210,
      "स": 6211,
      "ह": 6212,
      "़": 6213,
      "ा": 6214,
      "ि": 6215,
      "ी": 6216,
      "ु": 6217,
      "ू": 6218,
      "ृ": 6219,
      "ॄ": 6220,
      "ॅ": 6221,
      "ॆ": 6222,
      "े": 6223,
      "ै": 6224,
      "ॉ": 6225,
      "ॊ": 6226,
      "ो": 6227,
      "ौ": 6228,
      "्": 6229,
      "ॐ": 6230,
      "ॖ": 6231,
      "क़": 6232,
      "ख़": 6233,
      "ग़": 6234,
      "ज़": 6235,
      "ड़": 6236,
      "ढ़": 6237,
      "फ़": 6238,
      "य़": 6239,
      "ॠ": 6240,
      "।": 6241,
      "॥": 6242,
      "०": 6243,
      "१": 6244,
      "२": 6245,
      "३": 6246,
      "४": 6247,
      "५": 6248,
      "६": 6249,
      "७": 6250,
      "८": 6251,
      "९": 6252,
      "॰": 6253,
      "ॲ": 6254,
      "​": 6255,
      "‌": 6256,
      "‍": 6257,
      "‎": 6258,
      "₹": 6259,
      "के": 6260,
      "है": 6261,
      "ें": 6262,
      "्र": 6263,
      "ार": 6264,
      "ने": 6265,
      "या": 6266,
      "में": 6267,
      "से": 6268,
      "की": 6269,
      "का": 6270,
      "ों": 6271,
      "ता": 6272,
      "कर": 6273,
      "स्": 6274,
      "कि": 6275,
      "को": 6276,
      "र्": 6277,
      "ना": 6278,
      "क्": 6279,
      "ही": 6280,
      "और": 6281,
      "पर": 6282,
      "ते": 6283,
      "हो": 6284,
      "प्र": 6285,
      "ान": 6286,
      "्य": 6287,
      "ला": 6288,
      "वा": 6289,
      "ले": 6290,
      "सा": 6291,
      "हैं": 6292,
      "लि": 6293,
      "जा": 6294,
      "हा": 6295,
      "भी": 6296,
      "वि": 6297,
      "इस": 6298,
      "ती": 6299,
      "न्": 6300,
      "रा": 6301,
      "मा": 6302,
      "दे": 6303,
      "दि": 6304,
      "बा": 6305,
      "ति": 6306,
      "था": 6307,
      "नि": 6308,
      "कार": 6309,
      "एक": 6310,
      "हीं": 6311,
      "हु": 6312,
      "ंग": 6313,
      "ैं": 6314,
      "नी": 6315,
      "सी": 6316,
      "अप": 6317,
      "त्": 6318,
      "नहीं": 6319,
      "री": 6320,
      "मे": 6321,
      "मु": 6322,
      "ित": 6323,
      "तो": 6324,
      "पा": 6325,
      "ली": 6326,
      "लिए": 6327,
      "गा": 6328,
      "ल्": 6329,
      "रह": 6330,
      "रे": 6331,
      "क्ष": 6332,
      "मैं": 6333,
      "सम": 6334,
      "उस": 6335,
      "जि": 6336,
      "त्र": 6337,
      "मि": 6338,
      "चा": 6339,
      "ोग": 6340,
      "सं": 6341,
      "द्": 6342,
      "सि": 6343,
      "आप": 6344,
      "तु": 6345,
      "दा": 6346,
      "कु": 6347,
      "यों": 6348,
      "वे": 6349,
      "जी": 6350,
      "्या": 6351,
      "उन": 6352,
      "िक": 6353,
      "ये": 6354,
      "भा": 6355,
      "्ट": 6356,
      "हम": 6357,
      "स्ट": 6358,
      "शा": 6359,
      "ड़": 6360,
      "ंद": 6361,
      "खा": 6362,
      "म्": 6363,
      "श्": 6364,
      "यह": 6365,
      "सक": 6366,
      "पू": 6367,
      "किया": 6368,
      "अपने": 6369,
      "रू": 6370,
      "सु": 6371,
      "मी": 6372,
      "हि": 6373,
      "जो": 6374,
      "थे": 6375,
      "रि": 6376,
      "दी": 6377,
      "थी": 6378,
      "गी": 6379,
      "लोग": 6380,
      "गया": 6381,
      "तर": 6382,
      "न्ह": 6383,
      "च्": 6384,
      "वार": 6385,
      "बी": 6386,
      "प्": 6387,
      "दो": 6388,
      "टी": 6389,
      "शि": 6390,
      "करने": 6391,
      "गे": 6392,
      "ैसे": 6393,
      "इन": 6394,
      "ंड": 6395,
      "साथ": 6396,
      "पु": 6397,
      "बे": 6398,
      "बार": 6399,
      "वी": 6400,
      "अन": 6401,
      "हर": 6402,
      "उन्ह": 6403,
      "होता": 6404,
      "जब": 6405,
      "कुछ": 6406,
      "मान": 6407,
      "क्र": 6408,
      "बि": 6409,
      "पह": 6410,
      "फि": 6411,
      "सर": 6412,
      "ारी": 6413,
      "रो": 6414,
      "दू": 6415,
      "कहा": 6416,
      "तक": 6417,
      "शन": 6418,
      "ब्": 6419,
      "स्थ": 6420,
      "वह": 6421,
      "बाद": 6422,
      "ओं": 6423,
      "गु": 6424,
      "ज्": 6425,
      "्रे": 6426,
      "गर": 6427,
      "रहे": 6428,
      "वर्": 6429,
      "हू": 6430,
      "ार्": 6431,
      "पी": 6432,
      "बहु": 6433,
      "मुझ": 6434,
      "्रा": 6435,
      "दिया": 6436,
      "सब": 6437,
      "करते": 6438,
      "अपनी": 6439,
      "बहुत": 6440,
      "कह": 6441,
      "टे": 6442,
      "हुए": 6443,
      "किसी": 6444,
      "रहा": 6445,
      "ष्ट": 6446,
      "ज़": 6447,
      "बना": 6448,
      "सो": 6449,
      "डि": 6450,
      "कोई": 6451,
      "व्य": 6452,
      "बात": 6453,
      "रु": 6454,
      "वो": 6455,
      "मुझे": 6456,
      "द्ध": 6457,
      "चार": 6458,
      "मेरे": 6459,
      "वर": 6460,
      "्री": 6461,
      "जाता": 6462,
      "नों": 6463,
      "प्रा": 6464,
      "देख": 6465,
      "टा": 6466,
      "क्या": 6467,
      "अध": 6468,
      "लग": 6469,
      "लो": 6470,
      "पि": 6471,
      "यु": 6472,
      "चे": 6473,
      "जिस": 6474,
      "ंत": 6475,
      "ानी": 6476,
      "पै": 6477,
      "जन": 6478,
      "ारे": 6479,
      "ची": 6480,
      "मिल": 6481,
      "दु": 6482,
      "देश": 6483,
      "च्छ": 6484,
      "ष्": 6485,
      "सू": 6486,
      "खे": 6487,
      "चु": 6488,
      "िया": 6489,
      "लगा": 6490,
      "बु": 6491,
      "उनके": 6492,
      "ज्ञ": 6493,
      "क्षा": 6494,
      "तरह": 6495,
      "्यादा": 6496,
      "वाले": 6497,
      "पूर्": 6498,
      "मैंने": 6499,
      "काम": 6500,
      "रूप": 6501,
      "होती": 6502,
      "उप": 6503,
      "जान": 6504,
      "प्रकार": 6505,
      "भार": 6506,
      "मन": 6507,
      "हुआ": 6508,
      "टर": 6509,
      "हूँ": 6510,
      "परि": 6511,
      "पास": 6512,
      "अनु": 6513,
      "राज": 6514,
      "लोगों": 6515,
      "अब": 6516,
      "समझ": 6517,
      "डी": 6518,
      "मौ": 6519,
      "शु": 6520,
      "चि": 6521,
      "पे": 6522,
      "कृ": 6523,
      "सकते": 6524,
      "मह": 6525,
      "योग": 6526,
      "दर्": 6527,
      "उसे": 6528,
      "ंध": 6529,
      "डा": 6530,
      "जाए": 6531,
      "बो": 6532,
      "ूल": 6533,
      "मो": 6534,
      "ोंने": 6535,
      "ंस": 6536,
      "तुम": 6537,
      "पहले": 6538,
      "बता": 6539,
      "तथा": 6540,
      "यो": 6541,
      "गई": 6542,
      "उत्": 6543,
      "सकता": 6544,
      "कम": 6545,
      "ज्यादा": 6546,
      "रख": 6547,
      "समय": 6548,
      "ारा": 6549,
      "अगर": 6550,
      "स्त": 6551,
      "चल": 6552,
      "फिर": 6553,
      "वारा": 6554,
      "करना": 6555,
      "शी": 6556,
      "गए": 6557,
      "बन": 6558,
      "ौर": 6559,
      "होने": 6560,
      "चाह": 6561,
      "खु": 6562,
      "हाँ": 6563,
      "उन्हें": 6564,
      "उन्होंने": 6565,
      "छो": 6566,
      "म्ह": 6567,
      "प्रति": 6568,
      "निक": 6569,
      "वन": 6570,
      "्यू": 6571,
      "रही": 6572,
      "तुम्ह": 6573,
      "जैसे": 6574,
      "ियों": 6575,
      "क्यों": 6576,
      "लों": 6577,
      "फ़": 6578,
      "ंत्र": 6579,
      "होते": 6580,
      "क्ति": 6581,
      "त्य": 6582,
      "कर्": 6583,
      "कई": 6584,
      "वं": 6585,
      "किन": 6586,
      "पो": 6587,
      "कारण": 6588,
      "ड़ी": 6589,
      "भि": 6590,
      "इसके": 6591,
      "बर": 6592,
      "उसके": 6593,
      "द्वारा": 6594,
      "शे": 6595,
      "कॉ": 6596,
      "दिन": 6597,
      "न्न": 6598,
      "ड़ा": 6599,
      "स्व": 6600,
      "निर्": 6601,
      "मुख": 6602,
      "लिया": 6603,
      "टि": 6604,
      "ज्ञान": 6605,
      "क्त": 6606,
      "द्र": 6607,
      "ग्": 6608,
      "क्स": 6609,
      "मै": 6610,
      "गो": 6611,
      "जे": 6612,
      "ट्र": 6613,
      "मार": 6614,
      "त्व": 6615,
      "धार": 6616,
      "भाव": 6617,
      "करता": 6618,
      "खि": 6619,
      "कं": 6620,
      "चाहि": 6621,
      "यर": 6622,
      "प्त": 6623,
      "कों": 6624,
      "ंच": 6625,
      "जु": 6626,
      "मत": 6627,
      "अच्छ": 6628,
      "हुई": 6629,
      "कभी": 6630,
      "लेकिन": 6631,
      "भू": 6632,
      "अपना": 6633,
      "दूस": 6634,
      "चाहिए": 6635,
      "यू": 6636,
      "घर": 6637,
      "सबसे": 6638,
      "मेरी": 6639,
      "नाम": 6640,
      "ढ़": 6641,
      "ंट": 6642,
      "ेंगे": 6643,
      "बै": 6644,
      "फा": 6645,
      "एवं": 6646,
      "यी": 6647,
      "ग्र": 6648,
      "क्षे": 6649,
      "आज": 6650,
      "आपको": 6651,
      "भाग": 6652,
      "ठा": 6653,
      "कै": 6654,
      "भारत": 6655,
      "उनकी": 6656,
      "पहु": 6657,
      "सभी": 6658,
      "धा": 6659,
      "णा": 6660,
      "सान": 6661,
      "होगा": 6662,
      "तब": 6663,
      "संग": 6664,
      "पर्": 6665,
      "अव": 6666,
      "तना": 6667,
      "गि": 6668,
      "यन": 6669,
      "स्था": 6670,
      "चित": 6671,
      "ट्": 6672,
      "छा": 6673,
      "जाने": 6674,
      "क्षेत्र": 6675,
      "वाली": 6676,
      "पूर्ण": 6677,
      "समा": 6678,
      "कारी": 6679,
      "[hi]": 6680,
      "[vi]": 6681,
      "+": 6682,
      "µ": 6683,
      "¹": 6684,
      "À": 6685,
      "Á": 6686,
      "Â": 6687,
      "É": 6688,
      "Ê": 6689,
      "Í": 6690,
      "Ó": 6691,
      "Ô": 6692,
      "Ù": 6693,
      "Ú": 6694,
      "Ý": 6695,
      "å": 6696,
      "Ă": 6697,
      "Đ": 6698,
      "ĩ": 6699,
      "Ũ": 6700,
      "ũ": 6701,
      "ū": 6702,
      "Ơ": 6703,
      "ơ": 6704,
      "Ư": 6705,
      "ư": 6706,
      "В": 6707,
      "ạ": 6708,
      "Ả": 6709,
      "ả": 6710,
      "Ấ": 6711,
      "ấ": 6712,
      "ầ": 6713,
      "Ẩ": 6714,
      "ẩ": 6715,
      "ẫ": 6716,
      "ậ": 6717,
      "ắ": 6718,
      "ằ": 6719,
      "ẳ": 6720,
      "ẵ": 6721,
      "ặ": 6722,
      "ẹ": 6723,
      "Ẻ": 6724,
      "ẻ": 6725,
      "ẽ": 6726,
      "Ế": 6727,
      "ế": 6728,
      "ề": 6729,
      "ể": 6730,
      "ễ": 6731,
      "ệ": 6732,
      "ỉ": 6733,
      "ị": 6734,
      "ọ": 6735,
      "ỏ": 6736,
      "Ố": 6737,
      "ố": 6738,
      "Ồ": 6739,
      "ồ": 6740,
      "Ổ": 6741,
      "ổ": 6742,
      "ỗ": 6743,
      "ộ": 6744,
      "Ớ": 6745,
      "ớ": 6746,
      "Ờ": 6747,
      "ờ": 6748,
      "Ở": 6749,
      "ở": 6750,
      "ỡ": 6751,
      "ợ": 6752,
      "Ụ": 6753,
      "ụ": 6754,
      "Ủ": 6755,
      "ủ": 6756,
      "Ứ": 6757,
      "ứ": 6758,
      "Ừ": 6759,
      "ừ": 6760,
      "ử": 6761,
      "ữ": 6762,
      "ự": 6763,
      "ỳ": 6764,
      "ỵ": 6765,
      "ỷ": 6766,
      "Ỹ": 6767,
      "ỹ": 6768,
      "⁶": 6769,
      "版": 6770,
      "輪": 6771,
      "망": 6772,
      "실": 6773,
      "어": 6774,
      "와": 6775,
      "nh": 6776,
      "kh": 6777,
      "ông": 6778,
      "cá": 6779,
      "và": 6780,
      "iệ": 6781,
      "ời": 6782,
      "ình": 6783,
      "ột": 6784,
      "iế": 6785,
      "củ": 6786,
      "của": 6787,
      "ới": 6788,
      "ượ": 6789,
      "một": 6790,
      "ất": 6791,
      "ày": 6792,
      "ại": 6793,
      "không": 6794,
      "ược": 6795,
      "ười": 6796,
      "iề": 6797,
      "được": 6798,
      "ững": 6799,
      "ạn": 6800,
      "người": 6801,
      "ôi": 6802,
      "những": 6803,
      "đã": 6804,
      "các": 6805,
      "này": 6806,
      "mình": 6807,
      "ần": 6808,
      "trong": 6809,
      "như": 6810,
      "nó": 6811,
      "đó": 6812,
      "iều": 6813,
      "thì": 6814,
      "mà": 6815,
      "với": 6816,
      "ây": 6817,
      "ấy": 6818,
      "sẽ": 6819,
      "ải": 6820,
      "iên": 6821,
      "Th": 6822,
      "bạn": 6823,
      "ngh": 6824,
      "ướ": 6825,
      "cái": 6826,
      "úng": 6827,
      "ác": 6828,
      "để": 6829,
      "thể": 6830,
      "ành": 6831,
      "ến": 6832,
      "iể": 6833,
      "ũng": 6834,
      "uố": 6835,
      "cả": 6836,
      "iện": 6837,
      "ực": 6838,
      "ết": 6839,
      "lại": 6840,
      "ầu": 6841,
      "inh": 6842,
      "cũng": 6843,
      "ước": 6844,
      "ườ": 6845,
      "ức": 6846,
      "ường": 6847,
      "họ": 6848,
      "đến": 6849,
      "ơn": 6850,
      "Nh": 6851,
      "độ": 6852,
      "ươ": 6853,
      "ật": 6854,
      "oà": 6855,
      "ính": 6856,
      "khi": 6857,
      "ận": 6858,
      "ản": 6859,
      "ương": 6860,
      "ùng": 6861,
      "Ch": 6862,
      "vào": 6863,
      "từ": 6864,
      "tôi": 6865,
      "iến": 6866,
      "làm": 6867,
      "về": 6868,
      "ồi": 6869,
      "nă": 6870,
      "ào": 6871,
      "iết": 6872,
      "ằng": 6873,
      "chúng": 6874,
      "sự": 6875,
      "số": 6876,
      "phải": 6877,
      "àng": 6878,
      "òn": 6879,
      "âu": 6880,
      "Tr": 6881,
      "ối": 6882,
      "công": 6883,
      "ăn": 6884,
      "đi": 6885,
      "nhiều": 6886,
      "iệc": 6887,
      "đầu": 6888,
      "bị": 6889,
      "hơn": 6890,
      "việc": 6891,
      "ái": 6892,
      "áng": 6893,
      "ồng": 6894,
      "chỉ": 6895,
      "ập": 6896,
      "thế": 6897,
      "úc": 6898,
      "ộc": 6899,
      "Và": 6900,
      "Ng": 6901,
      "thành": 6902,
      "ắt": 6903,
      "trên": 6904,
      "ục": 6905,
      "rất": 6906,
      "ưa": 6907,
      "ôn": 6908,
      "êu": 6909,
      "gì": 6910,
      "thấy": 6911,
      "ẫn": 6912,
      "oàn": 6913,
      "ơi": 6914,
      "ắc": 6915,
      "chính": 6916,
      "ội": 6917,
      "ậy": 6918,
      "ích": 6919,
      "còn": 6920,
      "ài": 6921,
      "ữa": 6922,
      "nhà": 6923,
      "uộc": 6924,
      "đị": 6925,
      "uyệ": 6926,
      "nào": 6927,
      "năm": 6928,
      "hiện": 6929,
      "ổi": 6930,
      "tiế": 6931,
      "ngày": 6932,
      "iệt": 6933,
      "ếu": 6934,
      "ách": 6935,
      "đang": 6936,
      "Kh": 6937,
      "đây": 6938,
      "đề": 6939,
      "rồi": 6940,
      "nói": 6941,
      "ưng": 6942,
      "cách": 6943,
      "âm": 6944,
      "nhân": 6945,
      "ặt": 6946,
      "ặc": 6947,
      "nhất": 6948,
      "iệu": 6949,
      "uyện": 6950,
      "khác": 6951,
      "thời": 6952,
      "quan": 6953,
      "cùng": 6954,
      "ọi": 6955,
      "sau": 6956,
      "học": 6957,
      "động": 6958,
      "điều": 6959,
      "ánh": 6960,
      "biết": 6961,
      "nên": 6962,
      "òng": 6963,
      "rằng": 6964,
      "lên": 6965,
      "ạo": 6966,
      "ượng": 6967,
      "áo": 6968,
      "iểm": 6969,
      "mới": 6970,
      "theo": 6971,
      "quy": 6972,
      "uốn": 6973,
      "ống": 6974,
      "tại": 6975,
      "ứng": 6976,
      "ạnh": 6977,
      "ăng": 6978,
      "Nhưng": 6979,
      "kho": 6980,
      "vì": 6981,
      "nước": 6982,
      "ảo": 6983,
      "iểu": 6984,
      "ền": 6985,
      "ấp": 6986,
      "thực": 6987,
      "ảng": 6988,
      "ạt": 6989,
      "êm": 6990,
      "ấn": 6991,
      "giờ": 6992,
      "iền": 6993,
      "nhận": 6994,
      "uyên": 6995,
      "nhưng": 6996,
      "Ph": 6997,
      "thu": 6998,
      "ỏi": 6999,
      "dụ": 7000,
      "vậy": 7001,
      "nghĩ": 7002,
      "đồng": 7003,
      "tự": 7004,
      "hàng": 7005,
      "định": 7006,
      "ưở": 7007,
      "cuộc": 7008,
      "00": 7009,
      "sống": 7010,
      "ắn": 7011,
      "ưởng": 7012,
      "bản": 7013,
      "phần": 7014,
      "ọng": 7015,
      "thứ": 7016,
      "vẫn": 7017,
      "trước": 7018,
      "cần": 7019,
      "lớ": 7020,
      "cô": 7021,
      "hành": 7022,
      "hình": 7023,
      "cảm": 7024,
      "tiếp": 7025,
      "cơ": 7026,
      "àn": 7027,
      "áp": 7028,
      "phát": 7029,
      "iển": 7030,
      "tố": 7031,
      "luôn": 7032,
      "vị": 7033,
      "năng": 7034,
      "nữa": 7035,
      "trở": 7036,
      "ìm": 7037,
      "ỗi": 7038,
      "quá": 7039,
      "ấu": 7040,
      "ậu": 7041,
      "tới": 7042,
      "iệm": 7043,
      "muốn": 7044,
      "ừng": 7045,
      "ồn": 7046,
      "sinh": 7047,
      "nhiên": 7048,
      "dụng": 7049,
      "ìn": 7050,
      "sao": 7051,
      "cứ": 7052,
      "oài": 7053,
      "ửa": 7054,
      "thông": 7055,
      "dân": 7056,
      "bộ": 7057,
      "tâm": 7058,
      "trường": 7059,
      "ịch": 7060,
      "Trong": 7061,
      "tìm": 7062,
      "ốc": 7063,
      "bắt": 7064,
      "ừa": 7065,
      "mọi": 7066,
      "chuyện": 7067,
      "ắng": 7068,
      "ợp": 7069,
      "ạng": 7070,
      "giá": 7071,
      "mặt": 7072,
      "gian": 7073,
      "cao": 7074,
      "toàn": 7075,
      "bằng": 7076,
      "đối": 7077,
      "thường": 7078,
      "thức": 7079,
      "lớn": 7080,
      "thân": 7081,
      "ẳng": 7082,
      "ọn": 7083,
      "hợp": 7084,
      "nay": 7085,
      "điểm": 7086,
      "dự": 7087,
      "Tôi": 7088,
      "đều": 7089,
      "vật": 7090,
      "đường": 7091,
      "tình": 7092,
      "Thì": 7093,
      "ầm": 7094,
      "lực": 7095,
      "viên": 7096,
      "ởi": 7097,
      "câu": 7098,
      "ãy": 7099,
      "khó": 7100,
      "giới": 7101,
      "tháng": 7102,
      "trình": 7103,
      "xuất": 7104,
      "nhìn": 7105,
      "hội": 7106,
      "áy": 7107,
      "ua": 7108,
      "lúc": 7109,
      "bên": 7110,
      "tạo": 7111,
      "giả": 7112,
      "nhau": 7113,
      "ảnh": 7114,
      "kết": 7115,
      "lần": 7116,
      "tiền": 7117,
      "hết": 7118,
      "vụ": 7119,
      "kinh": 7120,
      "lượng": 7121,
      "ỉnh": 7122,
      "20": 7123,
      "iệp": 7124,
      "chị": 7125,
      "chiến": 7126,
      "uối": 7127,
      "úp": 7128,
      "ệnh": 7129,
      "chiế": 7130,
      "kỳ": 7131,
      "chưa": 7132,
      "sử": 7133,
      "bất": 7134,
      "thôi": 7135,
      "Một": 7136,
      "Có": 7137,
      "trọng": 7138,
      "ướng": 7139,
      "vô": 7140,
      "tập": 7141,
      "sách": 7142,
      "ôm": 7143,
      "thật": 7144,
      "tính": 7145,
      "sản": 7146,
      "uống": 7147,
      "ắm": 7148,
      "tư": 7149,
      "tác": 7150,
      "Khi": 7151,
      "thị": 7152,
      "ễn": 7153,
      "óng": 7154,
      "quả": 7155,
      "Sau": 7156,
      "nếu": 7157,
      "yêu": 7158,
      "giúp": 7159,
      "ẩn": 7160,
      "giải": 7161,
      "tế": 7162,
      "thêm": 7163,
      "tổ": 7164,
      "ẩm": 7165,
      "xem": 7166,
      "tay": 7167,
      "tốt": 7168,
      "ầy": 7169,
      "ọc": 7170,
      "bảo": 7171,
      "hiểu": 7172,
      "phí": 7173,
      "tiên": 7174,
      "ặp": 7175,
      "Nếu": 7176,
      "Nó": 7177,
      "chủ": 7178,
      "lời": 7179,
      "ợi": 7180,
      "ộng": 7181,
      "bao": 7182,
      "Mình": 7183,
      "khu": 7184,
      "mẹ": 7185,
      "tiêu": 7186,
      "óa": 7187,
      "khiến": 7188,
      "hoàn": 7189,
      "tỉnh": 7190,
      "thích": 7191,
      "ển": 7192,
      "quyết": 7193,
      "mạnh": 7194,
      "khoảng": 7195,
      "ảy": 7196,
      "cấp": 7197,
      "Gi": 7198,
      "uyền": 7199,
      "ạc": 7200,
      "hỏi": 7201,
      "ăm": 7202,
      "dư": 7203,
      "Không": 7204,
      "quân": 7205,
      "Các": 7206,
      "ấm": 7207,
      "đời": 7208,
      "biệt": 7209,
      "hệ": 7210,
      "Anh": 7211,
      "đổi": 7212,
      "đâu": 7213,
      "đại": 7214,
      "nghiệp": 7215,
      "hoặc": 7216,
      "ạch": 7217,
      "sát": 7218,
      "triển": 7219,
      "vừa": 7220,
      "tài": 7221,
      "tục": 7222,
      "ạm": 7223,
      "tất": 7224,
      "dùng": 7225,
      "phòng": 7226,
      "tiếng": 7227,
      "bỏ": 7228,
      "cầu": 7229,
      "nha": 7230,
      "Nam": 7231,
      "nhỏ": 7232,
      "tăng": 7233,
      "thay": 7234,
      "đo": 7235,
      "nơi": 7236,
      "tên": 7237,
      "uốc": 7238,
      "ngoài": 7239,
      "phương": 7240,
      "bà": 7241,
      "chất": 7242,
      "sức": 7243,
      "ạy": 7244,
      "máy": 7245,
      "từng": 7246,
      "xe": 7247,
      "thương": 7248,
      "đúng": 7249,
      "cảnh": 7250,
      "ngay": 7251,
      "trị": 7252,
      "bình": 7253,
      "liên": 7254,
      "uyển": 7255,
      "chơi": 7256,
      "trí": 7257,
      "cố": 7258,
      "cậu": 7259,
      "nghe": 7260,
      "hóa": 7261,
      "tho": 7262,
      "Để": 7263,
      "gặp": 7264,
      "chí": 7265,
      "Tuy": 7266,
      "sáng": 7267,
      "Những": 7268,
      "loại": 7269,
      "đưa": 7270,
      "ắp": 7271,
      "mất": 7272,
      "Chúng": 7273,
      "chiếc": 7274,
      "đánh": 7275,
      "địa": 7276,
      "hiệu": 7277,
      "gần": 7278,
      "trung": 7279,
      "lấy": 7280,
      "thủ": 7281,
      "óc": 7282,
      "biến": 7283,
      "ứa": 7284,
      "vid": 7285,
      "đất": 7286,
      "xã": 7287,
      "nghĩa": 7288,
      "báo": 7289,
      "bệnh": 7290,
      "trẻ": 7291,
      "đơn": 7292,
      "thống": 7293,
      "ậm": 7294,
      "tích": 7295,
      "ẹp": 7296,
      "mỗi": 7297,
      "phẩm": 7298,
      "chức": 7299,
      "ằm": 7300,
      "doanh": 7301,
      "hôm": 7302,
      "lập": 7303,
      "tưởng": 7304,
      "Thế": 7305,
      "video": 7306,
      "Còn": 7307,
      "Đây": 7308,
      "ãi": 7309,
      "ốn": 7310,
      "vấn": 7311,
      "vực": 7312,
      "dễ": 7313,
      "ưu": 7314,
      "đình": 7315,
      "Bạn": 7316,
      "dẫn": 7317,
      "Qu": 7318,
      "mua": 7319,
      "tượng": 7320,
      "mắt": 7321,
      "chuyển": 7322,
      "đặc": 7323,
      "gọi": 7324,
      "quốc": 7325,
      "đấy": 7326,
      "Đó": 7327,
      "cây": 7328,
      "xuống": 7329,
      "thần": 7330,
      "hướng": 7331,
      "ảm": 7332,
      "tương": 7333,
      "Vì": 7334,
      "cuối": 7335,
      "chú": 7336,
      "đủ": 7337,
      "hãy": 7338,
      "dưới": 7339,
      "càng": 7340,
      "bởi": 7341,
      "đội": 7342,
      "Trung": 7343,
      "khả": 7344,
      "chọn": 7345,
      "Việt": 7346,
      "giao": 7347,
      "phía": 7348,
      "hoạt": 7349,
      "bán": 7350,
      "10": 7351,
      "chẳng": 7352,
      "tuổi": 7353,
      "khách": 7354,
      "giữa": 7355,
      "cứu": 7356,
      "iếu": 7357,
      "trả": 7358,
      "Mỹ": 7359,
      "văn": 7360,
      "đồ": 7361,
      "tiết": 7362,
      "nghiệm": 7363,
      "nguyên": 7364,
      "iếm": 7365,
      "nhanh": 7366,
      "áu": 7367,
      "thiết": 7368,
      "màu": 7369,
      "giống": 7370,
      "tiến": 7371,
      "truyền": 7372,
      "cực": 7373,
      "dù": 7374,
      "tranh": 7375,
      "òa": 7376,
      "óm": 7377,
      "đáng": 7378,
      "mở": 7379,
      "phim": 7380,
      "lòng": 7381,
      "đạo": 7382,
      "Quốc": 7383,
      "diễn": 7384,
      "chết": 7385,
      "Ho": 7386,
      "Ông": 7387,
      "kể": 7388,
      "rõ": 7389,
      "mục": 7390,
      "quyền": 7391,
      "àu": 7392,
      "đẹp": 7393,
      "khỏi": 7394,
      "ặng": 7395,
      "đặt": 7396,
      "lã": 7397,
      "mức": 7398,
      "dài": 7399,
      "chắc": 7400,
      "khí": 7401,
      "sĩ": 7402,
      "pháp": 7403,
      "êng": 7404,
      "triệu": 7405,
      "Rồi": 7406,
      "điện": 7407,
      "kiến": 7408,
      "ngu": 7409,
      "iêu": 7410,
      "giáo": 7411,
      "chứng": 7412,
      "tinh": 7413,
      "uyết": 7414,
      "tham": 7415,
      "phân": 7416,
      "bài": 7417,
      "dịch": 7418,
      "sở": 7419,
      "liệu": 7420,
      "bàn": 7421,
      "nội": 7422,
      "xảy": 7423,
      "Người": 7424,
      "xác": 7425,
      "cửa": 7426,
      "Cái": 7427,
      "Vậy": 7428,
      "Là": 7429,
      "bây": 7430,
      "chân": 7431,
      "cổ": 7432,
      "quý": 7433,
      "kế": 7434,
      "vài": 7435,
      "trang": 7436,
      "phố": 7437,
      "kỹ": 7438,
      "lợi": 7439,
      "trò": 7440,
      "minh": 7441,
      "bước": 7442,
      "Với": 7443,
      "khá": 7444,
      "bố": 7445,
      "tức": 7446,
      "gây": 7447,
      "duy": 7448,
      "tối": 7449,
      "quay": 7450,
      "chế": 7451,
      "giữ": 7452,
      "yếu": 7453,
      "thuật": 7454,
      "trời": 7455,
      "ượt": 7456,
      "nhớ": 7457,
      "dựng": 7458,
      "vui": 7459,
      "chạy": 7460,
      "trái": 7461,
      "đạt": 7462,
      "xa": 7463,
      "Họ": 7464,
      "phục": 7465,
      "thanh": 7466,
      "suy": 7467,
      "bánh": 7468,
      "sợ": 7469,
      "Theo": 7470,
      "202": 7471,
      "hộ": 7472,
      "lâu": 7473,
      "Điều": 7474,
      "cuốn": 7475,
      "xây": 7476,
      "gái": 7477,
      "mù": 7478,
      "dung": 7479,
      "tử": 7480,
      "000": 7481,
      "mạng": 7482,
      "kiểm": 7483,
      "nữ": 7484,
      "ựa": 7485,
      "phụ": 7486,
      "đầy": 7487,
      "diện": 7488,
      "ếp": 7489,
      "nhiệm": 7490,
      "19": 7491,
      "thuộc": 7492,
      "Từ": 7493,
      "vọng": 7494,
      "Nga": 7495,
      "nổi": 7496,
      "kẻ": 7497,
      "kiếm": 7498,
      "Tại": 7499,
      "nhé": 7500,
      "chứ": 7501,
      "phá": 7502,
      "ĩnh": 7503,
      "vẻ": 7504,
      "tỷ": 7505,
      "lịch": 7506,
      "Mà": 7507,
      "đoạn": 7508,
      "uyến": 7509,
      "lắm": 7510,
      "nghi": 7511,
      "hưởng": 7512,
      "bay": 7513,
      "iềm": 7514,
      "giảm": 7515,
      "cụ": 7516,
      "trợ": 7517,
      "hạn": 7518,
      "thi": 7519,
      "nguồn": 7520,
      "lẽ": 7521,
      "xong": 7522,
      "món": 7523,
      "oàng": 7524,
      "khai": 7525,
      "chịu": 7526,
      "sẻ": 7527,
      "chút": 7528,
      "Cho": 7529,
      "nghệ": 7530,
      "vùng": 7531,
      "cạnh": 7532,
      "sâu": 7533,
      "kiện": 7534,
      "riêng": 7535,
      "phút": 7536,
      "đọc": 7537,
      "vệ": 7538,
      "đứng": 7539,
      "mấy": 7540,
      "nhập": 7541,
      "chuẩn": 7542,
      "viết": 7543,
      "trải": 7544,
      "èo": 7545,
      "xin": 7546,
      "dành": 7547,
      "Hãy": 7548,
      "luận": 7549,
      "nè": 7550,
      "thử": 7551,
      "nằm": 7552,
      "phản": 7553,
      "kia": 7554,
      "ngo": 7555,
      "đứa": 7556,
      "ổng": 7557,
      "xúc": 7558,
      "biển": 7559,
      "iếp": 7560,
      "hoa": 7561,
      "Như": 7562,
      "sắc": 7563,
      "ói": 7564,
      "ốt": 7565,
      "giác": 7566,
      "đàn": 7567,
      "mô": 7568,
      "Chỉ": 7569,
      "ịp": 7570,
      "hồi": 7571,
      "nhóm": 7572,
      "Con": 7573,
      "ộn": 7574,
      "độc": 7575,
      "đoàn": 7576,
      "tấn": 7577,
      "quanh": 7578,
      "ữu": 7579,
      "trai": 7580,
      "Bắc": 7581,
      "ngon": 7582,
      "huyện": 7583,
      "đô": 7584,
      "quản": 7585,
      "khăn": 7586,
      "giản": 7587,
      "uốt": 7588,
      "đấu": 7589,
      "trưởng": 7590,
      "trạng": 7591,
      "danh": 7592,
      "dần": 7593,
      "quen": 7594,
      "thơ": 7595,
      "đôi": 7596,
      "uôi": 7597,
      "úi": 7598,
      "ngủ": 7599,
      "chỗ": 7600,
      "mối": 7601,
      "Cô": 7602,
      "hữu": 7603,
      "vũ": 7604,
      "đêm": 7605,
      "lớp": 7606,
      "bác": 7607,
      "uyệt": 7608,
      "ngồi": 7609,
      "căn": 7610,
      "vàng": 7611,
      "Bộ": 7612,
      "nền": 7613,
      "Do": 7614,
      "thuyết": 7615,
      "đau": 7616,
      "trực": 7617,
      "lửa": 7618,
      "âng": 7619,
      "hơi": 7620,
      "lãnh": 7621,
      "chuyên": 7622,
      "Tây": 7623,
      "tổng": 7624,
      "mưa": 7625,
      "chương": 7626,
      "ạp": 7627,
      "lệ": 7628,
      "thú": 7629,
      "chắn": 7630,
      "hỗ": 7631,
      "xử": 7632,
      "ẹn": 7633,
      "phạm": 7634,
      "Công": 7635,
      "đông": 7636,
      "ủng": 7637,
      "ọt": 7638,
      "hoạch": 7639,
      "ủy": 7640,
      "thịt": 7641,
      "mong": 7642,
      "biểu": 7643,
      "phép": 7644,
      "đảm": 7645,
      "bóng": 7646,
      "rộng": 7647,
      "ẩy": 7648,
      "15": 7649,
      "30": 7650,
      "hắn": 7651,
      "lạ": 7652,
      "ồm": 7653,
      "thất": 7654,
      "khoa": 7655,
      "ngờ": 7656,
      "Ukra": 7657,
      "kỷ": 7658,
      "tuần": 7659,
      "thái": 7660,
      "Em": 7661,
      "đảo": 7662,
      "tầm": 7663,
      "ớm": 7664,
      "dòng": 7665,
      "vốn": 7666,
      "nghiên": 7667,
      "cáo": 7668,
      "cung": 7669,
      "luật": 7670,
      "ỡng": 7671,
      "bột": 7672,
      "ớt": 7673,
      "cộng": 7674,
      "cắt": 7675,
      "thiếu": 7676,
      "cư": 7677,
      "lưu": 7678,
      "kiểu": 7679,
      "chào": 7680,
      "gắng": 7681,
      "thúc": 7682,
      "Cũng": 7683,
      "ẵn": 7684,
      "chấp": 7685,
      "coi": 7686,
      "Ukraine": 7687,
      "thư": 7688,
      "chiều": 7689,
      "vận": 7690,
      "nạn": 7691,
      "viện": 7692,
      "hạnh": 7693,
      "vợ": 7694,
      "Bây": 7695,
      "chồng": 7696,
      "phúc": 7697,
      "nhiệt": 7698,
      "khỏ": 7699,
      "ẫu": 7700,
      "kéo": 7701,
      "xung": 7702,
      "Tết": 7703,
      "Trước": 7704,
      "bức": 7705,
      "tội": 7706,
      "tận": 7707,
      "ỗng": 7708,
      "đóng": 7709,
      "õi": 7710,
      "Bởi": 7711,
      "khỏe": 7712,
      "vượt": 7713,
      "nuôi": 7714,
      "sẵn": 7715,
      "vòng": 7716,
      "ỏa": 7717,
      "xét": 7718,
      "lựa": 7719,
      "tàu": 7720,
      "Chính": 7721,
      "ửi": 7722,
      "An": 7723,
      "thậm": 7724,
      "hồ": 7725,
      "đá": 7726,
      "lao": 7727,
      "phủ": 7728,
      "trận": 7729,
      "kê": 7730,
      "phong": 7731,
      "lạnh": 7732,
      "nhu": 7733,
      "đổ": 7734,
      "suốt": 7735,
      "đa": 7736,
      "Hà": 7737,
      "hiểm": 7738,
      "Đến": 7739,
      "sớm": 7740,
      "thoại": 7741,
      "Ngoài": 7742,
      "hề": 7743,
      "tồn": 7744,
      "đừng": 7745,
      "chữ": 7746,
      "dạng": 7747,
      "lễ": 7748,
      "Ngh": 7749,
      "hại": 7750,
      "12": 7751,
      "thẳng": 7752,
      "ngành": 7753,
      "phù": 7754,
      "xanh": 7755,
      "gồm": 7756,
      "buổi": 7757,
      "tuyệt": 7758,
      "Tất": 7759,
      "thiên": 7760,
      "kích": 7761,
      "óp": 7762,
      "50": 7763,
      "thầy": 7764,
      "Ma": 7765,
      "nguy": 7766,
      "đẩy": 7767,
      "cánh": 7768,
      "hòa": 7769,
      "Nên": 7770,
      "Bình": 7771,
      "linh": 7772,
      "thoát": 7773,
      "sư": 7774,
      "Đông": 7775,
      "ặn": 7776,
      "sắp": 7777,
      "ãn": 7778,
      "đăng": 7779,
      "chống": 7780,
      "ràng": 7781,
      "khắc": 7782,
      "chăm": 7783,
      "lai": 7784,
      "đột": 7785,
      "ươi": 7786,
      "thiện": 7787,
      "soát": 7788,
      "cười": 7789,
      "Ngày": 7790,
      "Thứ": 7791,
      "tù": 7792,
      "ngôi": 7793,
      "Lúc": 7794,
      "hậu": 7795,
      "chờ": 7796,
      "nâng": 7797,
      "niềm": 7798,
      "nóng": 7799,
      "luyện": 7800,
      "cà": 7801,
      "ỏng": 7802,
      "ổn": 7803,
      "trì": 7804,
      "mùa": 7805,
      "nông": 7806,
      "dạy": 7807,
      "lắng": 7808,
      "mặc": 7809,
      "Sự": 7810,
      "èn": 7811,
      "nhẹ": 7812,
      "dục": 7813,
      "nặng": 7814,
      "xuyên": 7815,
      "dàng": 7816,
      "nỗi": 7817,
      "phê": 7818,
      "đích": 7819,
      "nhờ": 7820,
      "Dù": 7821,
      "quên": 7822,
      "nhắc": 7823,
      "cải": 7824,
      "đỏ": 7825,
      "gió": 7826,
      "tộc": 7827,
      "ngoại": 7828,
      "tránh": 7829,
      "dấu": 7830,
      "khám": 7831,
      "làng": 7832,
      "trách": 7833,
      "lộ": 7834,
      "cháu": 7835,
      "buộc": 7836,
      "máu": 7837,
      "100": 7838,
      "chóng": 7839,
      "lạc": 7840,
      "đen": 7841,
      "Mar": 7842,
      "Nhân": 7843,
      "bại": 7844,
      "gửi": 7845,
      "ẩu": 7846,
      "òi": 7847,
      "khởi": 7848,
      "mắc": 7849,
      "Ta": 7850,
      "Đồng": 7851,
      "Bà": 7852,
      "hút": 7853,
      "sơ": 7854,
      "đoán": 7855,
      "bọn": 7856,
      "Nói": 7857,
      "nấu": 7858,
      "Mi": 7859,
      "huy": 7860,
      "nhằm": 7861,
      "đem": 7862,
      "hạ": 7863,
      "rơi": 7864,
      "trụ": 7865,
      "cập": 7866,
      "đáp": 7867,
      "dầu": 7868,
      "hồn": 7869,
      "thắng": 7870,
      "lỗi": 7871,
      "Đức": 7872,
      "lĩnh": 7873,
      "Việc": 7874,
      "thằng": 7875,
      "Hay": 7876,
      "thuốc": 7877,
      "nghị": 7878,
      "cầm": 7879,
      "niên": 7880,
      "Tiếp": 7881,
      "Hai": 7882,
      "Hoàng": 7883,
      "môi": 7884,
      "Về": 7885,
      "nghỉ": 7886,
      "18": 7887,
      "ùa": 7888,
      "ẳn": 7889,
      "hấp": 7890,
      "uyễn": 7891,
      "rừng": 7892,
      "trắng": 7893,
      "giàu": 7894,
      "tiện": 7895,
      "dõi": 7896,
      "ứt": 7897,
      "dị": 7898,
      "Ri": 7899,
      "thơm": 7900,
      "siêu": 7901,
      "buồn": 7902,
      "Ngay": 7903,
      "khổ": 7904,
      "giấy": 7905,
      "mơ": 7906,
      "uổi": 7907,
      "mật": 7908,
      "niệm": 7909,
      "yên": 7910,
      "tuyến": 7911,
      "Nhật": 7912,
      "dây": 7913,
      "nửa": 7914,
      "thấp": 7915,
      "đợi": 7916,
      "binh": 7917,
      "góp": 7918,
      "Năm": 7919,
      "dậy": 7920,
      "ầng": 7921,
      "iếng": 7922,
      "hẳn": 7923,
      "cũ": 7924,
      "mày": 7925,
      "Đúng": 7926,
      "Bản": 7927,
      "hoàng": 7928,
      "ngược": 7929,
      "chiếm": 7930,
      "Mỗi": 7931,
      "cận": 7932,
      "Ba": 7933,
      "trồng": 7934,
      "hẹn": 7935,
      "loài": 7936,
      "đón": 7937,
      "tầng": 7938,
      "Hoa": 7939,
      "rời": 7940,
      "cân": 7941,
      "phi": 7942,
      "khoản": 7943,
      "Pháp": 7944,
      "Thành": 7945,
      "Trên": 7946,
      "Nhiều": 7947,
      "nối": 7948,
      "tắc": 7949,
      "kênh": 7950,
      "Nguyên": 7951,
      "nàng": 7952,
      "giết": 7953,
      "cử": 7954,
      "xấu": 7955,
      "ngân": 7956,
      "xếp": 7957,
      "hạt": 7958,
      "Làm": 7959,
      "phóng": 7960,
      "11": 7961,
      "quái": 7962,
      "èm": 7963,
      "tả": 7964,
      "Nguyễn": 7965,
      "đào": 7966,
      "mãi": 7967,
      "toán": 7968,
      "châu": 7969,
      "màn": 7970,
      "chữa": 7971,
      "nghề": 7972,
      "phiên": 7973,
      "gà": 7974,
      "núi": 7975,
      "Liên": 7976,
      "liền": 7977,
      "Kỳ": 7978,
      "ngắn": 7979,
      "dữ": 7980,
      "cháy": 7981,
      "đám": 7982,
      "Nội": 7983,
      "Xin": 7984,
      "Tổng": 7985,
      "Lan": 7986,
      "Hoặc": 7987,
      "thuận": 7988,
      "dựa": 7989,
      "nhiêu": 7990,
      "quán": 7991,
      "khẩu": 7992,
      "Ví": 7993,
      "gốc": 7994,
      "dừng": 7995,
      "mẫu": 7996,
      "tôn": 7997,
      "ệt": 7998,
      "Cảm": 7999,
      "ụng": 8000,
      "quần": 8001,
      "200": 8002,
      "Đã": 8003,
      "Thái": 8004,
      "khủng": 8005,
      "miền": 8006,
      "hầu": 8007,
      "tạm": 8008,
      "nghèo": 8009,
      "nghiêm": 8010,
      "tốc": 8011,
      "nắng": 8012,
      "Bên": 8013,
      "Đầu": 8014,
      "băng": 8015,
      "đỡ": 8016,
      "khóa": 8017,
      "sàng": 8018,
      "nắm": 8019,
      "đuổi": 8020,
      "Cậu": 8021,
      "tỏ": 8022,
      "ngăn": 8023,
      "môn": 8024,
      "Ban": 8025,
      "kính": 8026,
      "sạch": 8027,
      "nhật": 8028,
      "phiếu": 8029,
      "trao": 8030,
      "giai": 8031,
      "Lo": 8032,
      "xưa": 8033,
      "mề": 8034,
      "xo": 8035,
      "Vào": 8036,
      "khắp": 8037,
      "muỗng": 8038,
      "mời": 8039,
      "Sa": 8040,
      "khô": 8041,
      "vẽ": 8042,
      "Đối": 8043,
      "phổ": 8044,
      "canh": 8045,
      "góc": 8046,
      "16": 8047,
      "Mặc": 8048,
      "Mọi": 8049,
      "chàng": 8050,
      "ngữ": 8051,
      "nỗ": 8052,
      "tuyên": 8053,
      "Chủ": 8054,
      "Câu": 8055,
      "bật": 8056,
      "ụi": 8057,
      "14": 8058,
      "Văn": 8059,
      "thủy": 8060,
      "Đại": 8061,
      "2024": 8062,
      "bắn": 8063,
      "tắt": 8064,
      "lệnh": 8065,
      "Thanh": 8066,
      "ew": 8067,
      "mềm": 8068,
      "ợt": 8069,
      "ngọt": 8070,
      "nổ": 8071,
      "thù": 8072,
      "suất": 8073,
      "bếp": 8074,
      "rút": 8075,
      "tớ": 8076,
      "Mai": 8077,
      "2023": 8078,
      "biên": 8079,
      "thao": 8080,
      "mái": 8081,
      "muối": 8082,
      "Thực": 8083,
      "cường": 8084,
      "úa": 8085,
      "Minh": 8086,
      "Thật": 8087,
      "àm": 8088,
      "kịp": 8089,
      "hương": 8090,
      "phận": 8091,
      "lái": 8092,
      "Được": 8093,
      "Thị": 8094,
      "Hiện": 8095,
      "nhạc": 8096,
      "Rất": 8097,
      "cơn": 8098,
      "thưởng": 8099,
      "mừng": 8100,
      "éo": 8101,
      "dưỡng": 8102,
      "lành": 8103,
      "bầu": 8104,
      "sân": 8105,
      "diệt": 8106,
      "tấm": 8107,
      "sóng": 8108,
      "thừa": 8109,
      "bạc": 8110,
      "tịch": 8111,
      "ùi": 8112,
      "Thời": 8113,
      "tô": 8114,
      "trông": 8115,
      "%.": 8116,
      "thăm": 8117,
      "trốn": 8118,
      "sông": 8119,
      "lược": 8120,
      "ngừng": 8121,
      "gắn": 8122,
      "tải": 8123,
      "ụp": 8124,
      "iệng": 8125,
      "họa": 8126,
      "tiểu": 8127,
      "Cuối": 8128,
      "mũ": 8129,
      "mẽ": 8130,
      "ngũ": 8131,
      "17": 8132,
      "quỷ": 8133,
      "cơm": 8134,
      "Cùng": 8135,
      "tặng": 8136,
      "tệ": 8137,
      "Cả": 8138,
      "hôn": 8139,
      "sóc": 8140,
      "lương": 8141,
      "Đừng": 8142,
      "lẫn": 8143,
      "Ro": 8144,
      "hoảng": 8145,
      "loạn": 8146,
      "tín": 8147,
      "ĩa": 8148,
      "chứa": 8149,
      "Hòa": 8150,
      "ãng": 8151,
      "tòa": 8152,
      "Dương": 8153,
      "tướng": 8154,
      "khuyên": 8155,
      "lầm": 8156,
      "tươi": 8157,
      "kém": 8158,
      "Thưa": 8159,
      "xuân": 8160,
      "hứng": 8161,
      "13": 8162,
      "miệng": 8163,
      "lư": 8164,
      "Hôm": 8165,
      "thiệu": 8166,
      "trừ": 8167,
      "giỏi": 8168,
      "cốt": 8169,
      "Nhà": 8170,
      "ướp": 8171,
      "trứng": 8172,
      "bè": 8173,
      "lối": 8174,
      "tạp": 8175,
      "súng": 8176,
      "ườn": 8177,
      "tao": 8178,
      "lũ": 8179,
      "thói": 8180,
      "chặt": 8181,
      "vời": 8182,
      "bò": 8183,
      "miếng": 8184,
      "Giờ": 8185,
      "thách": 8186,
      "ngại": 8187,
      "Hải": 8188,
      "đậu": 8189,
      "mùi": 8190,
      "nhi": 8191,
      "hài": 8192,
      "Thậm": 8193,
      "dám": 8194,
      "trăm": 8195,
      "hào": 8196,
      "sửa": 8197,
      "ấc": 8198,
      "thiệt": 8199,
      "Chị": 8200,
      "Âu": 8201,
      "khối": 8202,
      "dịp": 8203,
      "đương": 8204,
      "uấn": 8205,
      "Chẳng": 8206,
      "mắn": 8207,
      "bổ": 8208,
      "In": 8209,
      "hủy": 8210,
      "chỉnh": 8211,
      "phối": 8212,
      "Hội": 8213,
      "Jo": 8214,
      "quà": 8215,
      "bữa": 8216,
      "40": 8217,
      "bày": 8218,
      "giận": 8219,
      "Thu": 8220,
      "vững": 8221,
      "Nhìn": 8222,
      "mây": 8223,
      "thập": 8224,
      "quê": 8225,
      "ngôn": 8226,
      "thảo": 8227,
      "đòi": 8228,
      "tảng": 8229,
      "Chắc": 8230,
      "Phần": 8231,
      "cục": 8232,
      "chuyến": 8233,
      "loạt": 8234,
      "bào": 8235,
      "hả": 8236,
      "Lu": 8237,
      "hộp": 8238,
      "khổng": 8239,
      "25": 8240,
      "đảng": 8241,
      "khứ": 8242,
      "giám": 8243,
      "căng": 8244,
      "nhấn": 8245,
      "đế": 8246,
      "khuôn": 8247,
      "thở": 8248,
      "khẳng": 8249,
      "nhá": 8250,
      "24": 8251,
      "tựa": 8252,
      "Cứ": 8253,
      "Đặc": 8254,
      "ea": 8255,
      "sôi": 8256,
      "thang": 8257,
      "lồ": 8258,
      "Sơn": 8259,
      "ủi": 8260,
      "đạn": 8261,
      "quảng": 8262,
      "tóc": 8263,
      "ngang": 8264,
      "phán": 8265,
      "nợ": 8266,
      "tàn": 8267,
      "Giang": 8268,
      "rau": 8269,
      "liệt": 8270,
      "nhảy": 8271,
      "Chứ": 8272,
      "La": 8273,
      "kẹ": 8274,
      "Gia": 8275,
      "ìa": 8276,
      "kêu": 8277,
      "tờ": 8278,
      "vết": 8279,
      "chạm": 8280,
      "thôn": 8281,
      "Cuộc": 8282,
      "Cơ": 8283,
      "hùng": 8284,
      "tiềm": 8285,
      "vỡ": 8286,
      "ngã": 8287,
      "Cộng": 8288,
      "The": 8289,
      "khóc": 8290,
      "lượt": 8291,
      "kèm": 8292,
      "đèn": 8293,
      "khán": 8294,
      "60": 8295,
      "xí": 8296,
      "tái": 8297,
      "thận": 8298,
      "gấp": 8299,
      "mệnh": 8300,
      "bối": 8301,
      "nồi": 8302,
      "chậm": 8303,
      "biện": 8304,
      "kịch": 8305,
      "bờ": 8306,
      "đức": 8307,
      "Phật": 8308,
      "Lý": 8309,
      "trộn": 8310,
      "dương": 8311,
      "lão": 8312,
      "dường": 8313,
      "hãi": 8314,
      "nguyện": 8315,
      "giấc": 8316,
      "Sao": 8317,
      "nướng": 8318,
      "chó": 8319,
      "Hu": 8320,
      "phạt": 8321,
      "tròn": 8322,
      "túi": 8323,
      "lặng": 8324,
      "mì": 8325,
      "khảo": 8326,
      "cứng": 8327,
      "phức": 8328,
      "dày": 8329,
      "ượu": 8330,
      "cấu": 8331,
      "truy": 8332,
      "kiên": 8333,
      "thỏa": 8334,
      "Is": 8335,
      "giây": 8336,
      "ọa": 8337,
      "Cách": 8338,
      "nhỉ": 8339,
      "đốc": 8340,
      "úy": 8341,
      "hạng": 8342,
      "chảy": 8343,
      "Phon": 8344,
      "khiển": 8345,
      "ậc": 8346,
      "chiên": 8347,
      "Phải": 8348,
      "gói": 8349,
      "Ủy": 8350,
      "cán": 8351,
      "Bằng": 8352,
      "rượu": 8353,
      "tuyển": 8354,
      "thí": 8355,
      "amera": 8356,
      "sót": 8357,
      "rửa": 8358,
      "Hồ": 8359,
      "Su": 8360,
      "dối": 8361,
      "tường": 8362,
      "trà": 8363,
      "chán": 8364,
      "Thay": 8365,
      "bậc": 8366,
      "tổn": 8367,
      "nét": 8368,
      "sổ": 8369,
      "giật": 8370,
      "cờ": 8371,
      "lục": 8372,
      "đập": 8373,
      "trấn": 8374,
      "đợt": 8375,
      "500": 8376,
      "lỗ": 8377,
      "pha": 8378,
      "thụ": 8379,
      "thuê": 8380,
      "tĩnh": 8381,
      "huống": 8382,
      "trưng": 8383,
      "Ok": 8384,
      "Kết": 8385,
      "ngàn": 8386,
      "Tra": 8387,
      "Mẹ": 8388,
      "chấm": 8389,
      "chín": 8390,
      "lọc": 8391,
      "mệt": 8392,
      "mũi": 8393,
      "thượng": 8394,
      "giành": 8395,
      "phú": 8396,
      "rác": 8397,
      "thuyền": 8398,
      "mảnh": 8399,
      "trùng": 8400,
      "trúc": 8401,
      "lính": 8402,
      "Qua": 8403,
      "bụng": 8404,
      "Cụ": 8405,
      "vỏ": 8406,
      "Đi": 8407,
      "tùy": 8408,
      "hảo": 8409,
      "70": 8410,
      "lừa": 8411,
      "Yên": 8412,
      "săn": 8413,
      "đỉnh": 8414,
      "ngạc": 8415,
      "No": 8416,
      "km": 8417,
      "80": 8418,
      "chừng": 8419,
      "thác": 8420,
      "Thông": 8421,
      "ỡi": 8422,
      "vườn": 8423,
      "Co": 8424,
      "Xu": 8425,
      "chiếu": 8426,
      "lin": 8427,
      "mại": 8428,
      "lưng": 8429,
      "Khu": 8430,
      "bấm": 8431,
      "mộ": 8432,
      "đậm": 8433,
      "ninh": 8434,
      "vua": 8435,
      "ùm": 8436,
      "Thôi": 8437,
      "Hàn": 8438,
      "xương": 8439,
      "nhiễ": 8440,
      "tủ": 8441,
      "thoải": 8442,
      "sữa": 8443,
      "trào": 8444,
      "Chi": 8445,
      "bốn": 8446,
      "giọng": 8447,
      "sốt": 8448,
      "miễn": 8449,
      "Tức": 8450,
      "bông": 8451,
      "nở": 8452,
      "thảm": 8453,
      "Hy": 8454,
      "bạo": 8455,
      "thổ": 8456,
      "Độ": 8457,
      "thua": 8458,
      "Quảng": 8459,
      "hoang": 8460,
      "Phát": 8461,
      "điên": 8462,
      "Nghe": 8463,
      "ngâm": 8464,
      "Xong": 8465,
      "đáo": 8466,
      "mèo": 8467,
      "mãn": 8468,
      "ngư": 8469,
      "ịnh": 8470,
      "bớt": 8471,
      "Đài": 8472,
      "chối": 8473,
      "xíu": 8474,
      "Go": 8475,
      "Ấn": 8476,
      "Châu": 8477,
      "mò": 8478,
      "Phi": 8479,
      "kiệm": 8480,
      "Sp": 8481,
      "hải": 8482,
      "nút": 8483,
      "mát": 8484,
      "ủa": 8485,
      "họp": 8486,
      "khung": 8487,
      "gọn": 8488,
      "chặn": 8489,
      "trôi": 8490,
      "Phương": 8491,
      "khát": 8492,
      "Lần": 8493,
      "cãi": 8494,
      "dính": 8495,
      "Long": 8496,
      "Ja": 8497,
      "De": 8498,
      "Hồng": 8499,
      "hồng": 8500,
      "Isra": 8501,
      "tách": 8502,
      "Israel": 8503,
      "vội": 8504,
      "ẫy": 8505,
      "nhuận": 8506,
      "Đảng": 8507,
      "thả": 8508,
      "đua": 8509,
      "ngựa": 8510,
      "chục": 8511,
      "nhắn": 8512,
      "vay": 8513,
      "Kinh": 8514,
      "tuy": 8515,
      "ộm": 8516,
      "quỹ": 8517,
      "Nhờ": 8518,
      "cặp": 8519,
      "quyển": 8520,
      "Sẽ": 8521,
      "Trường": 8522,
      "tiếc": 8523,
      "sánh": 8524,
      "bận": 8525,
      "Hắn": 8526,
      "Chưa": 8527,
      "TV": 8528,
      "dọa": 8529,
      "tung": 8530,
      "hãng": 8531,
      "triết": 8532,
      "tụ": 8533,
      "Trần": 8534,
      "So": 8535,
      "hỗn": 8536,
      "chua": 8537,
      "Bo": 8538,
      "bảng": 8539,
      "Đấy": 8540,
      "nãy": 8541,
      "dừa": 8542,
      "tán": 8543,
      "ựng": 8544,
      "ẻo": 8545,
      "Ga": 8546,
      "Ni": 8547,
      "mực": 8548,
      "xoay": 8549,
      "mét": 8550,
      "Hơn": 8551,
      "tốn": 8552,
      "Kể": 8553,
      "Le": 8554,
      "ín": 8555,
      "Lê": 8556,
      "giòn": 8557,
      "chợ": 8558,
      "Linh": 8559,
      "pháo": 8560,
      "rối": 8561,
      "địch": 8562,
      "ghét": 8563,
      "hứa": 8564,
      "Tình": 8565,
      "đằng": 8566,
      "Phú": 8567,
      "mạch": 8568,
      "dọn": 8569,
      "Trời": 8570,
      "hiếm": 8571,
      "tôm": 8572,
      "itan": 8573,
      "khích": 8574,
      "cản": 8575,
      "huyết": 8576,
      "gỗ": 8577,
      "phó": 8578,
      "chúc": 8579,
      "bút": 8580,
      "tha": 8581,
      "ruột": 8582,
      "Ninh": 8583,
      "song": 8584,
      "nhiễm": 8585,
      "Titan": 8586,
      "Ben": 8587,
      "Số": 8588,
      "hư": 8589,
      "táo": 8590,
      "vương": 8591,
      "cướp": 8592,
      "nhẫn": 8593,
      "thải": 8594,
      "To": 8595,
      "tuệ": 8596,
      "cẩn": 8597,
      "hỏa": 8598,
      "truyện": 8599,
      "camera": 8600,
      "chả": 8601,
      "chai": 8602,
      "huấn": 8603,
      "vong": 8604,
      "Thường": 8605,
      "90": 8606,
      "Cảnh": 8607,
      "thờ": 8608,
      "xứng": 8609,
      "Mo": 8610,
      "lãi": 8611,
      "răng": 8612,
      "rủi": 8613,
      "tỏa": 8614,
      "trại": 8615,
      "giấu": 8616,
      "Man": 8617,
      "Ka": 8618,
      "May": 8619,
      "đền": 8620,
      "gạo": 8621,
      "New": 8622,
      "Ha": 8623,
      "thuế": 8624,
      "Sam": 8625,
      "xâm": 8626,
      "thiền": 8627,
      "treo": 8628,
      "22": 8629,
      "Hồi": 8630,
      "đam": 8631,
      "khái": 8632,
      "cú": 8633,
      "bền": 8634,
      "Nghĩa": 8635,
      "ngọn": 8636,
      "trần": 8637,
      "Pa": 8638,
      "chụp": 8639,
      "mỏi": 8640,
      "vĩ": 8641,
      "Dạ": 8642,
      "trầm": 8643,
      "Tân": 8644,
      "Sh": 8645,
      "gã": 8646,
      "tràn": 8647,
      "Har": 8648,
      "thuần": 8649,
      "ịn": 8650,
      "Lại": 8651,
      "rẻ": 8652,
      "phấn": 8653,
      "nghìn": 8654,
      "ớn": 8655,
      "lip": 8656,
      "cự": 8657,
      "cột": 8658,
      "ẫm": 8659,
      "Ngọc": 8660,
      "đốt": 8661,
      "John": 8662,
      "cổng": 8663,
      "sợi": 8664,
      "ngục": 8665,
      "coin": 8666,
      "21": 8667,
      "rét": 8668,
      "đe": 8669,
      "rào": 8670,
      "chìm": 8671,
      "gương": 8672,
      "kháng": 8673,
      "23": 8674,
      "hầm": 8675,
      "vầy": 8676,
      "trú": 8677,
      "giảng": 8678,
      "cưới": 8679,
      "ướt": 8680,
      "dao": 8681,
      "cấm": 8682,
      "Phượng": 8683,
      "lãng": 8684,
      "Bất": 8685,
      "đói": 8686,
      "Mời": 8687,
      "thấu": 8688,
      "dĩ": 8689,
      "đựng": 8690,
      "thẩm": 8691,
      "trộm": 8692,
      "Xuân": 8693,
      "Của": 8694,
      "bề": 8695,
      "Tổ": 8696,
      "điệp": 8697,
      "leo": 8698,
      "Bit": 8699,
      "xinh": 8700,
      "lò": 8701,
      "nhàng": 8702,
      "đòn": 8703,
      "lỡ": 8704,
      "Chào": 8705,
      "trích": 8706,
      "Quang": 8707,
      "Kim": 8708,
      "vẹn": 8709,
      "ụt": 8710,
      "xóm": 8711,
      "trống": 8712,
      "điển": 8713,
      "300": 8714,
      "Da": 8715,
      "khen": 8716,
      "ợn": 8717,
      "Vừa": 8718,
      "nọ": 8719,
      "ớp": 8720,
      "ngưỡng": 8721,
      "Bitcoin": 8722,
      "Thầy": 8723,
      "trưa": 8724,
      "ghế": 8725,
      "Phonos": 8726,
      "Me": 8727,
      "túc": 8728,
      "thước": 8729,
      "iếc": 8730,
      "đài": 8731,
      "khiếp": 8732,
      "Cha": 8733,
      "cất": 8734,
      "khuyến": 8735,
      "chúa": 8736,
      "Đà": 8737,
      "thánh": 8738,
      "Di": 8739,
      "TP": 8740,
      "khúc": 8741,
      "bs": 8742,
      "Mày": 8743,
      "gỡ": 8744,
      "Tập": 8745,
      "đâm": 8746,
      "đùa": 8747,
      "Bảo": 8748,
      "sắt": 8749,
      "tỏi": 8750,
      "lông": 8751,
      "tụi": 8752,
      "27": 8753,
      "heo": 8754,
      "phường": 8755,
      "khoảnh": 8756,
      "Phó": 8757,
      "tóm": 8758,
      "giường": 8759,
      "Ra": 8760,
      "phỏng": 8761,
      "Lai": 8762,
      "Thấy": 8763,
      "chở": 8764,
      "bỗng": 8765,
      "béo": 8766,
      "Tự": 8767,
      "dáng": 8768,
      "tây": 8769,
      "muộn": 8770,
      "Han": 8771,
      "Liệu": 8772,
      "khoai": 8773,
      "mắm": 8774,
      "ngập": 8775,
      "hối": 8776,
      "ơm": 8777,
      "giáp": 8778,
      "dứt": 8779,
      "chăng": 8780,
      "Ar": 8781,
      "móc": 8782,
      "Ăn": 8783,
      "bom": 8784,
      "Thủ": 8785,
      "hè": 8786,
      "trăng": 8787,
      "chuột": 8788,
      "Po": 8789,
      "Re": 8790,
      "Tiên": 8791,
      "bát": 8792,
      "Quá": 8793,
      "Mặt": 8794,
      "Li": 8795,
      "thấm": 8796,
      "hung": 8797,
      "Hương": 8798,
      "hiệp": 8799,
      "mưu": 8800,
      "giam": 8801,
      "Dân": 8802,
      "gợi": 8803,
      "26": 8804,
      "Nước": 8805,
      "cỏ": 8806,
      "29": 8807,
      "huyền": 8808,
      "Tư": 8809,
      "khoán": 8810,
      "thai": 8811,
      "Giống": 8812,
      "bãi": 8813,
      "quận": 8814,
      "phe": 8815,
      "chăn": 8816,
      "chốt": 8817,
      "Đôi": 8818,
      "Vi": 8819,
      "ngón": 8820,
      "Trang": 8821,
      "Toàn": 8822,
      "nấm": 8823,
      "thiểu": 8824,
      "Car": 8825,
      "Chuyện": 8826,
      "Thiên": 8827,
      "35": 8828,
      "2022": 8829,
      "nắp": 8830,
      "nhắm": 8831,
      "dọc": 8832,
      "Sáng": 8833,
      "xóa": 8834,
      "lay": 8835
    },
    "merges": [
      [
        "th",
        "e"
      ],
      [
        "o",
        "w"
      ],
      [
        "w",
        "h"
      ],
      [
        "th",
        "at"
      ],
      [
        "l",
        "d"
      ],
      [
        "h",
        "is"
      ],
      [
        "wi",
        "th"
      ],
      [
        "gh",
        "t"
      ],
      [
        "ou",
        "t"
      ],
      [
        "ou",
        "ld"
      ],
      [
        "s",
        "he"
      ],
      [
        "b",
        "ut"
      ],
      [
        "om",
        "e"
      ],
      [
        "the",
        "r"
      ],
      [
        "a",
        "in"
      ],
      [
        "the",
        "y"
      ],
      [
        "n",
        "ow"
      ],
      [
        "ou",
        "n"
      ],
      [
        "th",
        "is"
      ],
      [
        "ha",
        "ve"
      ],
      [
        "no",
        "t"
      ],
      [
        "th",
        "ing"
      ],
      [
        "fr",
        "om"
      ],
      [
        "ac",
        "k"
      ],
      [
        "u",
        "st"
      ],
      [
        "s",
        "ome"
      ],
      [
        "the",
        "re"
      ],
      [
        "w",
        "ay"
      ],
      [
        "w",
        "ere"
      ],
      [
        "at",
        "e"
      ],
      [
        "t",
        "ed"
      ],
      [
        "oun",
        "d"
      ],
      [
        "ow",
        "n"
      ],
      [
        "w",
        "ould"
      ],
      [
        "wh",
        "at"
      ],
      [
        "al",
        "ly"
      ],
      [
        "i",
        "ght"
      ],
      [
        "wh",
        "en"
      ],
      [
        "ou",
        "gh"
      ],
      [
        "id",
        "e"
      ],
      [
        "k",
        "now"
      ],
      [
        "ver",
        "y"
      ],
      [
        "wh",
        "o"
      ],
      [
        "ab",
        "out"
      ],
      [
        "i",
        "ll"
      ],
      [
        "the",
        "m"
      ],
      [
        "re",
        "d"
      ],
      [
        "c",
        "ould"
      ],
      [
        "on",
        "g"
      ],
      [
        "you",
        "r"
      ],
      [
        "the",
        "ir"
      ],
      [
        "j",
        "ust"
      ],
      [
        "o",
        "ther"
      ],
      [
        "in",
        "to"
      ],
      [
        "wh",
        "i"
      ],
      [
        "t",
        "w"
      ],
      [
        "d",
        "id"
      ],
      [
        "be",
        "en"
      ],
      [
        "ac",
        "e"
      ],
      [
        "it",
        "y"
      ],
      [
        "b",
        "ack"
      ],
      [
        "t",
        "ing"
      ],
      [
        "mo",
        "re"
      ],
      [
        "a",
        "ke"
      ],
      [
        "the",
        "n"
      ],
      [
        "sa",
        "id"
      ],
      [
        "ge",
        "t"
      ],
      [
        "ei",
        "n"
      ],
      [
        "un",
        "d"
      ],
      [
        "h",
        "r"
      ],
      [
        "da",
        "s"
      ],
      [
        "ein",
        "e"
      ],
      [
        "ich",
        "t"
      ],
      [
        "a",
        "ch"
      ],
      [
        "au",
        "f"
      ],
      [
        "l",
        "ich"
      ],
      [
        "n",
        "icht"
      ],
      [
        "m",
        "m"
      ],
      [
        "w",
        "ar"
      ],
      [
        "s",
        "ich"
      ],
      [
        "o",
        "ch"
      ],
      [
        "un",
        "g"
      ],
      [
        "an",
        "n"
      ],
      [
        "i",
        "hr"
      ],
      [
        "t",
        "z"
      ],
      [
        "ei",
        "t"
      ],
      [
        "wi",
        "r"
      ],
      [
        "v",
        "on"
      ],
      [
        "w",
        "ei"
      ],
      [
        "ein",
        "en"
      ],
      [
        "r",
        "ei"
      ],
      [
        "au",
        "ch"
      ],
      [
        "ü",
        "ber"
      ],
      [
        "b",
        "ei"
      ],
      [
        "h",
        "m"
      ],
      [
        "l",
        "ei"
      ],
      [
        "a",
        "ber"
      ],
      [
        "w",
        "en"
      ],
      [
        "h",
        "l"
      ],
      [
        "n",
        "ach"
      ],
      [
        "i",
        "mm"
      ],
      [
        "sch",
        "en"
      ],
      [
        "ä",
        "n"
      ],
      [
        "s",
        "ein"
      ],
      [
        "f",
        "ür"
      ],
      [
        "eine",
        "m"
      ],
      [
        "n",
        "och"
      ],
      [
        "hat",
        "te"
      ],
      [
        "p",
        "f"
      ],
      [
        "h",
        "in"
      ],
      [
        "ch",
        "en"
      ],
      [
        "r",
        "ü"
      ],
      [
        "ie",
        "l"
      ],
      [
        "das",
        "s"
      ],
      [
        "i",
        "hn"
      ],
      [
        "sch",
        "l"
      ],
      [
        "ein",
        "er"
      ],
      [
        "m",
        "ich"
      ],
      [
        "wen",
        "n"
      ],
      [
        "g",
        "te"
      ],
      [
        "ge",
        "l"
      ],
      [
        "n",
        "ur"
      ],
      [
        "mm",
        "en"
      ],
      [
        "f",
        "ü"
      ],
      [
        "er",
        "n"
      ],
      [
        "un",
        "ter"
      ],
      [
        "d",
        "ur"
      ],
      [
        "u",
        "ch"
      ],
      [
        "m",
        "ach"
      ],
      [
        "d",
        "och"
      ],
      [
        "dur",
        "ch"
      ],
      [
        "g",
        "l"
      ],
      [
        "ihr",
        "e"
      ],
      [
        "w",
        "ä"
      ],
      [
        "imm",
        "er"
      ],
      [
        "i",
        "hm"
      ],
      [
        "k",
        "ann"
      ],
      [
        "d",
        "ann"
      ],
      [
        "tz",
        "t"
      ],
      [
        "o",
        "der"
      ],
      [
        "hr",
        "en"
      ],
      [
        "k",
        "ön"
      ],
      [
        "i",
        "ck"
      ],
      [
        "wie",
        "der"
      ],
      [
        "da",
        "ß"
      ],
      [
        "m",
        "ein"
      ],
      [
        "gan",
        "z"
      ],
      [
        "die",
        "se"
      ],
      [
        "da",
        "r"
      ],
      [
        "ge",
        "s"
      ],
      [
        "f",
        "l"
      ],
      [
        "sch",
        "e"
      ],
      [
        "un",
        "gen"
      ],
      [
        "me",
        "hr"
      ],
      [
        "ß",
        "en"
      ],
      [
        "ha",
        "ben"
      ],
      [
        "ge",
        "h"
      ],
      [
        "ä",
        "t"
      ],
      [
        "s",
        "ind"
      ],
      [
        "un",
        "s"
      ],
      [
        "u",
        "te"
      ],
      [
        "sch",
        "on"
      ],
      [
        "ge",
        "sch"
      ],
      [
        "b",
        "t"
      ],
      [
        "rü",
        "ck"
      ],
      [
        "s",
        "eine"
      ],
      [
        "ei",
        "l"
      ],
      [
        "zu",
        "m"
      ],
      [
        "sp",
        "r"
      ],
      [
        "le",
        "ben"
      ],
      [
        "b",
        "st"
      ],
      [
        "z",
        "eit"
      ],
      [
        "den",
        "n"
      ],
      [
        "sch",
        "a"
      ],
      [
        "ge",
        "gen"
      ],
      [
        "w",
        "ür"
      ],
      [
        "wer",
        "den"
      ],
      [
        "je",
        "tzt"
      ],
      [
        "ko",
        "mmen"
      ],
      [
        "s",
        "ei"
      ],
      [
        "h",
        "eit"
      ],
      [
        "so",
        "ll"
      ],
      [
        "g",
        "lei"
      ],
      [
        "m",
        "eine"
      ],
      [
        "wo",
        "ll"
      ],
      [
        "ha",
        "be"
      ],
      [
        "w",
        "ur"
      ],
      [
        "lich",
        "en"
      ],
      [
        "as",
        "sen"
      ],
      [
        "n",
        "te"
      ],
      [
        "se",
        "hen"
      ],
      [
        "wir",
        "d"
      ],
      [
        "b",
        "is"
      ],
      [
        "m",
        "us"
      ],
      [
        "u",
        "ß"
      ],
      [
        "ä",
        "r"
      ],
      [
        "st",
        "ell"
      ],
      [
        "k",
        "eit"
      ],
      [
        "z",
        "wei"
      ],
      [
        "sel",
        "bst"
      ],
      [
        "sa",
        "gte"
      ],
      [
        "te",
        "t"
      ],
      [
        "k",
        "am"
      ],
      [
        "s",
        "sen"
      ],
      [
        "v",
        "iel"
      ],
      [
        "h",
        "ei"
      ],
      [
        "m",
        "ann"
      ],
      [
        "wi",
        "ll"
      ],
      [
        "war",
        "en"
      ],
      [
        "ü",
        "ck"
      ],
      [
        "ä",
        "ch"
      ],
      [
        "h",
        "au"
      ],
      [
        "ei",
        "gen"
      ],
      [
        "bl",
        "ick"
      ],
      [
        "all",
        "es"
      ],
      [
        "au",
        "gen"
      ],
      [
        "lich",
        "e"
      ],
      [
        "un",
        "ser"
      ],
      [
        "der",
        "n"
      ],
      [
        "her",
        "r"
      ],
      [
        "v",
        "ie"
      ],
      [
        "ch",
        "te"
      ],
      [
        "wo",
        "hl"
      ],
      [
        "f",
        "all"
      ],
      [
        "h",
        "t"
      ],
      [
        "et",
        "was"
      ],
      [
        "ä",
        "u"
      ],
      [
        "m",
        "ö"
      ],
      [
        "r",
        "ie"
      ],
      [
        "d",
        "ich"
      ],
      [
        "die",
        "s"
      ],
      [
        "h",
        "and"
      ],
      [
        "ff",
        "en"
      ],
      [
        "nicht",
        "s"
      ],
      [
        "hn",
        "e"
      ],
      [
        "ihn",
        "en"
      ],
      [
        "die",
        "ser"
      ],
      [
        "fr",
        "au"
      ],
      [
        "di",
        "r"
      ],
      [
        "i",
        "sch"
      ],
      [
        "er",
        "st"
      ],
      [
        "glei",
        "ch"
      ],
      [
        "ko",
        "mm"
      ],
      [
        "h",
        "ör"
      ],
      [
        "ß",
        "e"
      ],
      [
        "se",
        "hr"
      ],
      [
        "z",
        "ei"
      ],
      [
        "au",
        "m"
      ],
      [
        "h",
        "ät"
      ],
      [
        "g",
        "ut"
      ],
      [
        "m",
        "ut"
      ],
      [
        "ck",
        "en"
      ],
      [
        "kon",
        "nte"
      ],
      [
        "st",
        "imm"
      ],
      [
        "zu",
        "r"
      ],
      [
        "i",
        "tz"
      ],
      [
        "wei",
        "l"
      ],
      [
        "wür",
        "de"
      ],
      [
        "f",
        "ä"
      ],
      [
        "kön",
        "nen"
      ],
      [
        "k",
        "eine"
      ],
      [
        "i",
        "schen"
      ],
      [
        "vo",
        "ll"
      ],
      [
        "ein",
        "es"
      ],
      [
        "se",
        "tz"
      ],
      [
        "te",
        "te"
      ],
      [
        "sein",
        "er"
      ],
      [
        "ier",
        "en"
      ],
      [
        "ge",
        "st"
      ],
      [
        "zu",
        "rück"
      ],
      [
        "wur",
        "de"
      ],
      [
        "sch",
        "n"
      ],
      [
        "lie",
        "ß"
      ],
      [
        "m",
        "ä"
      ],
      [
        "gen",
        "d"
      ],
      [
        "f",
        "ol"
      ],
      [
        "schl",
        "a"
      ],
      [
        "scha",
        "ft"
      ],
      [
        "at",
        "er"
      ],
      [
        "wei",
        "ß"
      ],
      [
        "s",
        "einen"
      ],
      [
        "l",
        "assen"
      ],
      [
        "und",
        "en"
      ],
      [
        "t",
        "eil"
      ],
      [
        "ne",
        "u"
      ],
      [
        "ier",
        "t"
      ],
      [
        "men",
        "schen"
      ],
      [
        "hm",
        "en"
      ],
      [
        "ihr",
        "en"
      ],
      [
        "el",
        "n"
      ],
      [
        "wei",
        "ter"
      ],
      [
        "ge",
        "hen"
      ],
      [
        "ig",
        "er"
      ],
      [
        "mach",
        "t"
      ],
      [
        "ta",
        "g"
      ],
      [
        "al",
        "so"
      ],
      [
        "hal",
        "ten"
      ],
      [
        "n",
        "is"
      ],
      [
        "ach",
        "t"
      ],
      [
        "ge",
        "ben"
      ],
      [
        "de",
        "t"
      ],
      [
        "o",
        "hne"
      ],
      [
        "h",
        "aus"
      ],
      [
        "l",
        "au"
      ],
      [
        "sp",
        "iel"
      ],
      [
        "sch",
        "r"
      ],
      [
        "in",
        "n"
      ],
      [
        "mach",
        "en"
      ],
      [
        "hät",
        "te"
      ],
      [
        "wir",
        "k"
      ],
      [
        "g",
        "lich"
      ],
      [
        "te",
        "s"
      ],
      [
        "fre",
        "und"
      ],
      [
        "ihr",
        "er"
      ],
      [
        "ein",
        "mal"
      ],
      [
        "e",
        "ben"
      ],
      [
        "h",
        "än"
      ],
      [
        "ter",
        "n"
      ],
      [
        "h",
        "ö"
      ],
      [
        "sch",
        "w"
      ],
      [
        "wa",
        "hr"
      ],
      [
        "s",
        "einem"
      ],
      [
        "ste",
        "hen"
      ],
      [
        "hl",
        "en"
      ],
      [
        "g",
        "ing"
      ],
      [
        "woll",
        "te"
      ],
      [
        "wi",
        "ssen"
      ],
      [
        "ung",
        "s"
      ],
      [
        "al",
        "d"
      ],
      [
        "ja",
        "hr"
      ],
      [
        "wel",
        "t"
      ],
      [
        "un",
        "der"
      ],
      [
        "zu",
        "sa"
      ],
      [
        "at",
        "ion"
      ],
      [
        "ko",
        "pf"
      ],
      [
        "lan",
        "g"
      ],
      [
        "hin",
        "ter"
      ],
      [
        "at",
        "z"
      ],
      [
        "an",
        "gen"
      ],
      [
        "an",
        "k"
      ],
      [
        "gl",
        "au"
      ],
      [
        "f",
        "ach"
      ],
      [
        "hat",
        "ten"
      ],
      [
        "ei",
        "cht"
      ],
      [
        "i",
        "ff"
      ],
      [
        "m",
        "ei"
      ],
      [
        "diese",
        "m"
      ],
      [
        "k",
        "ein"
      ],
      [
        "f",
        "rei"
      ],
      [
        "fü",
        "hr"
      ],
      [
        "vo",
        "m"
      ],
      [
        "ai",
        "t"
      ],
      [
        "ou",
        "r"
      ],
      [
        "ai",
        "s"
      ],
      [
        "ou",
        "s"
      ],
      [
        "an",
        "s"
      ],
      [
        "u",
        "ne"
      ],
      [
        "e",
        "lle"
      ],
      [
        "p",
        "our"
      ],
      [
        "d",
        "ans"
      ],
      [
        "t",
        "ou"
      ],
      [
        "v",
        "ous"
      ],
      [
        "ou",
        "v"
      ],
      [
        "s",
        "ur"
      ],
      [
        "p",
        "lu"
      ],
      [
        "è",
        "re"
      ],
      [
        "ai",
        "n"
      ],
      [
        "m",
        "ais"
      ],
      [
        "o",
        "is"
      ],
      [
        "plu",
        "s"
      ],
      [
        "é",
        "e"
      ],
      [
        "ai",
        "ent"
      ],
      [
        "av",
        "e"
      ],
      [
        "ét",
        "ait"
      ],
      [
        "tou",
        "t"
      ],
      [
        "oi",
        "r"
      ],
      [
        "av",
        "ait"
      ],
      [
        "n",
        "ous"
      ],
      [
        "eu",
        "x"
      ],
      [
        "le",
        "ur"
      ],
      [
        "pr",
        "o"
      ],
      [
        "e",
        "ur"
      ],
      [
        "et",
        "te"
      ],
      [
        "ai",
        "re"
      ],
      [
        "ave",
        "c"
      ],
      [
        "il",
        "le"
      ],
      [
        "com",
        "me"
      ],
      [
        "u",
        "x"
      ],
      [
        "è",
        "s"
      ],
      [
        "au",
        "x"
      ],
      [
        "j",
        "our"
      ],
      [
        "il",
        "s"
      ],
      [
        "c",
        "ou"
      ],
      [
        "que",
        "l"
      ],
      [
        "p",
        "eu"
      ],
      [
        "c",
        "ette"
      ],
      [
        "f",
        "ait"
      ],
      [
        "ê",
        "tre"
      ],
      [
        "it",
        "é"
      ],
      [
        "a",
        "tion"
      ],
      [
        "en",
        "s"
      ],
      [
        "pu",
        "is"
      ],
      [
        "mê",
        "me"
      ],
      [
        "ag",
        "e"
      ],
      [
        "m",
        "oi"
      ],
      [
        "en",
        "ce"
      ],
      [
        "m",
        "ain"
      ],
      [
        "or",
        "s"
      ],
      [
        "au",
        "t"
      ],
      [
        "an",
        "ce"
      ],
      [
        "s",
        "ans"
      ],
      [
        "s",
        "é"
      ],
      [
        "l",
        "on"
      ],
      [
        "h",
        "om"
      ],
      [
        "ch",
        "er"
      ],
      [
        "vi",
        "e"
      ],
      [
        "au",
        "s"
      ],
      [
        "de",
        "ux"
      ],
      [
        "en",
        "f"
      ],
      [
        "o",
        "ù"
      ],
      [
        "u",
        "re"
      ],
      [
        "te",
        "mp"
      ],
      [
        "r",
        "ent"
      ],
      [
        "f",
        "aire"
      ],
      [
        "end",
        "re"
      ],
      [
        "pr",
        "é"
      ],
      [
        "s",
        "ent"
      ],
      [
        "t",
        "ant"
      ],
      [
        "l",
        "ais"
      ],
      [
        "pr",
        "ès"
      ],
      [
        "c",
        "our"
      ],
      [
        "p",
        "et"
      ],
      [
        "i",
        "ne"
      ],
      [
        "l",
        "ait"
      ],
      [
        "tr",
        "ouv"
      ],
      [
        "son",
        "t"
      ],
      [
        "temp",
        "s"
      ],
      [
        "r",
        "ait"
      ],
      [
        "qu",
        "and"
      ],
      [
        "jour",
        "s"
      ],
      [
        "av",
        "oir"
      ],
      [
        "ét",
        "é"
      ],
      [
        "f",
        "ois"
      ],
      [
        "or",
        "te"
      ],
      [
        "t",
        "ous"
      ],
      [
        "j",
        "us"
      ],
      [
        "cou",
        "p"
      ],
      [
        "t",
        "s"
      ],
      [
        "hom",
        "me"
      ],
      [
        "ê",
        "te"
      ],
      [
        "aus",
        "si"
      ],
      [
        "ur",
        "s"
      ],
      [
        "or",
        "d"
      ],
      [
        "g",
        "é"
      ],
      [
        "co",
        "re"
      ],
      [
        "v",
        "re"
      ],
      [
        "en",
        "core"
      ],
      [
        "au",
        "tre"
      ],
      [
        "pr",
        "is"
      ],
      [
        "peu",
        "t"
      ],
      [
        "g",
        "n"
      ],
      [
        "ré",
        "p"
      ],
      [
        "si",
        "on"
      ],
      [
        "vo",
        "tre"
      ],
      [
        "f",
        "em"
      ],
      [
        "leur",
        "s"
      ],
      [
        "t",
        "our"
      ],
      [
        "r",
        "ai"
      ],
      [
        "re",
        "gar"
      ],
      [
        "ri",
        "en"
      ],
      [
        "ver",
        "s"
      ],
      [
        "su",
        "is"
      ],
      [
        "p",
        "ouv"
      ],
      [
        "gr",
        "and"
      ],
      [
        "ant",
        "s"
      ],
      [
        "re",
        "r"
      ],
      [
        "c",
        "é"
      ],
      [
        "t",
        "ent"
      ],
      [
        "pr",
        "es"
      ],
      [
        "al",
        "ors"
      ],
      [
        "si",
        "eur"
      ],
      [
        "ai",
        "ne"
      ],
      [
        "le",
        "r"
      ],
      [
        "qu",
        "oi"
      ],
      [
        "end",
        "ant"
      ],
      [
        "eu",
        "re"
      ],
      [
        "a",
        "près"
      ],
      [
        "don",
        "c"
      ],
      [
        "l",
        "è"
      ],
      [
        "s",
        "ait"
      ],
      [
        "t",
        "oi"
      ],
      [
        "ai",
        "l"
      ],
      [
        "as",
        "se"
      ],
      [
        "vo",
        "y"
      ],
      [
        "con",
        "n"
      ],
      [
        "pet",
        "it"
      ],
      [
        "av",
        "ant"
      ],
      [
        "n",
        "om"
      ],
      [
        "don",
        "t"
      ],
      [
        "s",
        "ous"
      ],
      [
        "el",
        "les"
      ],
      [
        "be",
        "au"
      ],
      [
        "pr",
        "it"
      ],
      [
        "tou",
        "jours"
      ],
      [
        "r",
        "ais"
      ],
      [
        "jam",
        "ais"
      ],
      [
        "tr",
        "av"
      ],
      [
        "tion",
        "s"
      ],
      [
        "tr",
        "ès"
      ],
      [
        "v",
        "oi"
      ],
      [
        "y",
        "eux"
      ],
      [
        "v",
        "oir"
      ],
      [
        "pre",
        "mi"
      ],
      [
        "g",
        "ne"
      ],
      [
        "h",
        "eure"
      ],
      [
        "e",
        "ff"
      ],
      [
        "no",
        "tre"
      ],
      [
        "ment",
        "s"
      ],
      [
        "f",
        "ais"
      ],
      [
        "ce",
        "la"
      ],
      [
        "rép",
        "on"
      ],
      [
        "ai",
        "r"
      ],
      [
        "ô",
        "t"
      ],
      [
        "p",
        "endant"
      ],
      [
        "i",
        "ci"
      ],
      [
        "tou",
        "te"
      ],
      [
        "j",
        "et"
      ],
      [
        "p",
        "ort"
      ],
      [
        "ét",
        "aient"
      ],
      [
        "h",
        "é"
      ],
      [
        "au",
        "tres"
      ],
      [
        "p",
        "ère"
      ],
      [
        "o",
        "c"
      ],
      [
        "quel",
        "ques"
      ],
      [
        "i",
        "que"
      ],
      [
        "l",
        "is"
      ],
      [
        "fem",
        "me"
      ],
      [
        "te",
        "ur"
      ],
      [
        "mon",
        "de"
      ],
      [
        "u",
        "se"
      ],
      [
        "n",
        "es"
      ],
      [
        "r",
        "ap"
      ],
      [
        "par",
        "t"
      ],
      [
        "le",
        "ment"
      ],
      [
        "f",
        "ut"
      ],
      [
        "quel",
        "que"
      ],
      [
        "pr",
        "endre"
      ],
      [
        "r",
        "ê"
      ],
      [
        "ai",
        "lle"
      ],
      [
        "s",
        "ais"
      ],
      [
        "ch",
        "es"
      ],
      [
        "è",
        "res"
      ],
      [
        "ent",
        "s"
      ],
      [
        "mo",
        "ins"
      ],
      [
        "e",
        "au"
      ],
      [
        "a",
        "î"
      ],
      [
        "j",
        "eu"
      ],
      [
        "h",
        "eur"
      ],
      [
        "é",
        "es"
      ],
      [
        "po",
        "int"
      ],
      [
        "m",
        "om"
      ],
      [
        "v",
        "ent"
      ],
      [
        "n",
        "ouv"
      ],
      [
        "gr",
        "an"
      ],
      [
        "tr",
        "ois"
      ],
      [
        "s",
        "ant"
      ],
      [
        "tout",
        "es"
      ],
      [
        "con",
        "tre"
      ],
      [
        "è",
        "rent"
      ],
      [
        "che",
        "z"
      ],
      [
        "ave",
        "z"
      ],
      [
        "û",
        "t"
      ],
      [
        "a",
        "lle"
      ],
      [
        "at",
        "t"
      ],
      [
        "p",
        "au"
      ],
      [
        "p",
        "orte"
      ],
      [
        "ouv",
        "er"
      ],
[...]
